separately
##fted
bridges
respectable
sparks
desperation
coalition
experimenting
wars
[unused725]
cleveland
godfather
arthritis
msc
padma
raft
##liest
##dridge
[unused438]
militant
keepers
פ
sable
alvaro
lunged
roosevelt
181
mace
gorman
##inge
##lick
[unused388]
universal
season
score
birmingham
##bard
mushroom
stealth
livelihood
##dda
##ध
pharaoh
heidelberg
pena
emigrated
perspectives
yarn
##ciency
ᅮ
backseat
projections
flora
337
shops
[unused360]
[unused729]
##raya
santos
##hone
##edging
##hane
interiors
greco
menace
##tler
goldstein
competed
tried
slow
critique
kerman
lennox
prefers
nbl
wrist
categories
##ddy
incapable
observer
+
lucas
hammond
て
slips
##岡
dubbed
private
object
##be
hourly
fan
[unused728]
whitehead
##⊗
thai
appreciate
alsace
##matic
intel
##icides
transforms
##pani
##onate
1728
inducted
okay
sanchez
##ary
nautical
##tre
identifying
1812
taylor
generate
##tres
major
##rdi
bedfordshire
##yn
expressway
jenkins
limitation
##tou
litigation
rd
engineer
footballers
##iri
##yon
employs
ai
overtook
aria
geographically
disturbances
resource
genocide
exposing
slack
throne
##ela
corona
[unused599]
mole
examination
amherst
genie
publisher
nine
receiver
developmental
abel
##nesian
##42
benin
vastly
ascribed
##ひ
lucian
transportation
rejoined
##cian
##dication
##lm
barnet
finer
##ק
##হ
degrees
marion
benedictine
property
quest
digits
dismantled
missions
千
disapproval
general
##rsa
##dus
1931
ワ
una
bluegrass
morgan
##lis
ecclesiastical
##日
wholly
burkina
mana
credentials
[unused865]
webber
unwilling
cum
ties
conway
[unused924]
##dos
##raine
##all
contemplated
bf
rescued
quoting
legislative
layers
[unused690]
resolution
which
butt
1790
portray
ping
melbourne
copying
##lovic
citing
norfolk
laurent
representative
eye
dot
america
worm
competent
stair
ว
reasonably
##bridge
keys
##anu
264
1813
##nka
elites
##asurable
consume
waivers
[unused499]
##jak
dolly
biennale
necessity
first
##pac
higher
[unused382]
imagination
id
[unused51]
becky
marketplace
nano
pavilion
cs
sheng
further
addiction
##gled
##ե
司
belts
enacted
juniper
indiana
johann
whisky
shares
leroy
pursuits
judo
222
imposing
jerk
overheard
carmen
intern
academics
contractors
clapped
unease
##orin
##mobile
##ར
カ
##inn
miner
1820s
##mbs
aisle
[unused313]
physiology
,
hungry
wrists
##ン
conclusion
galleries
approaches
some
agreement
xl
ireland
morally
##ゆ
comfort
organic
##mies
goalscorer
twinkle
sites
[unused368]
bahadur
academy
jozef
pines
bao
avid
baltic
save
[unused840]
relies
##ser
commence
marsh
came
middle
rushed
wingspan
repaired
strengthened
##wood
reacts
dynasties
[unused744]
transitions
efforts
compliment
coral
contributors
##ulate
আ
[unused456]
finals
augsburg
bets
b1
batter
##chase
tory
carpathian
##hal
[unused582]
ය
descending
ந
disposal
executive
cry
chunk
##park
##rom
violinist
##neuve
ut
eventually
velocity
potential
bassist
malone
saul
puff
[unused309]
##tal
##ntal
attempt
##rza
##rites
commissioners
##raction
blew
enthusiasm
部
##њ
haiti
ellis
ignores
″
##kow
droplets
forcefully
scans
settle
applied
##dog
tracts
##ı
platt
mercury
regardless
kindness
[unused39]
crypt
##urrent
sustainability
lancashire
oil
fired
haunting
regulates
accompanied
##kshi
##isen
shannon
exchange
baptized
carousel
trek
inability
producer
##itor
##iest
monterey
bacterial
milling
ps
spring
negro
tottenham
dispersed
monetary
lobbying
chilling
##aki
[unused917]
highness
##rdon
sling
maharashtra
england
##ye
##ving
##¦
venue
innocent
import
rebuild
inland
heated
1759
fulbright
son
freaking
##cede
##ici
plasma
##森
riders
farming
mundane
hacking
##na
ibn
clinched
risks
crossover
filipino
riches
deserve
cliff
nba
cream
conveyed
##lty
sophomore
ensuing
nation
harmless
casting
warlord
wilderness
welterweight
plastered
swallowed
jurisdictions
systematically
rush
locate
wta
choral
131
frustration
##itude
reappeared
1843
trainer
kei
##ci
massachusetts
alley
believe
colonel
tear
を
##ι
hemingway
[unused90]
##church
retrieved
ton
##ந
##у
43rd
strokes
ankara
annabelle
reuters
##iste
underwood
##学
patsy
##front
##wat
portrait
crippled
##ann
[unused675]
ropes
cathy
lil
rooney
64
craft
rub
##eem
##ulating
hardened
##lings
lille
nicholls
150
ju
vida
##ate
##pressing
##ved
##ums
サ
[unused431]
mediterranean
excavated
commitment
originally
successfully
##geny
##fer
crate
fish
##ר
proceed
shanghai
lighter
expanse
ruler
church
recover
mai
stafford
seminal
weaken
##dham
aldo
freed
kissing
²
consideration
amir
aerodynamic
suspicion
tries
imp
ye
zone
dana
republican
attorney
citizens
olive
##வ
##加
acquainted
coins
##ட
30
charm
whig
nathaniel
tournament
jiangsu
comfortably
lashes
ibm
re
bruise
[unused10]
massey
jobs
rectangular
pearson
patti
typed
3rd
decisions
##esis
remarkable
vigor
##sons
[unused550]
fitness
outfit
tribute
valet
mccann
mongolia
blackened
dumont
191
recruitment
vile
##ᆨ
winters
dexter
ashland
##sville
alliances
dismounted
gage
forecast
mondays
car
singer
paces
wells
islamist
beverages
[unused836]
roasted
vip
causing
afternoons
inclusion
##mate
radically
chong
wet
##chs
jamie
dolphin
##sen
realism
##sley
throw
cash
##bbed
1915
budapest
db
baba
##ngen
letting
homicide
dunbar
docking
slide
documentaries
radial
hines
signal
nodded
reich
painter
##mill
campground
##ug
##tham
puppets
hyderabad
##phone
##wart
giro
##$
therefore
trainee
governorate
580
oman
acceptable
blackpool
##gers
instructors
blogs
bandits
authoritarian
4
carthage
##che
traitor
common
riverside
charleston
##bat
cared
overgrown
ρ
demographic
##oat
##hesion
##\
corpus
##dents
##tama
##青
paralympics
gareth
##iting
##dry
##logue
##ನ
sections
appoint
nah
sentiments
afterwards
##hire
presley
##り
annum
##asia
preserved
sentai
seismic
##‐
hesitated
initiative
advancement
bushes
##כ
cane
শ
postseason
##jana
revisited
##cked
sculptures
learned
sid
concerts
310
sweeney
help
##jong
jaguars
people
##nch
civilized
##dicated
cryptic
dartmouth
##iology
firstly
vanity
crook
thankfully
linked
##eak
rep
##oses
winkler
##uchi
threaten
hee
swami
##中
niece
qin
enchanted
##cheng
hectare
pathetic
##iaceae
leukemia
nelson
historical
##nian
thrusts
tang
khan
rises
anime
##mide
pale
chant
stevenson
##ᆯ
cartoonist
burying
1900s
vinyl
##yman
fulham
aqueduct
judgment
terms
sentencing
paler
croats
ensuring
pioneer
infectious
wizard
governmental
erection
*
langdon
[unused904]
moons
groan
dominic
mmm
dragoons
##fc
qc
hygiene
defenders
hallmark
malik
meditation
yellowish
##cton
refined
bangor
absolute
leo
##hus
knelt
aiden
bert
specialists
aquarium
gardens
##dana
ξ
♥
1629
steer
gan
မ
childless
jacques
conde
murphy
dal
lifelong
later
##ened
tuba
eminent
thursday
##dron
arrive
isolated
worrying
##pher
twin
##÷
1832
ferris
acquire
cemeteries
parental
##erson
panther
carr
256
compassion
appear
accompany
sounds
quiver
##koff
wits
bryn
expecting
[unused450]
##ᵈ
guiding
tri
dancers
spotlight
mp3
outcome
periodical
polled
tragedy
##ised
##ditional
ɒ
chip
periodic
##arts
careless
decreed
mclaughlin
any
laugh
ernst
icao
happily
disclosure
retorted
mimic
nominated
##ane
collarbone
adult
of
##iance
opposing
##alis
smeared
hannover
flicking
##ther
controversies
peasants
visibility
gs
jupiter
##mp
relocation
aliens
garth
[unused94]
##ほ
involuntary
р
purple
##mie
craved
disbelief
adopting
coop
mascot
##ink
[unused678]
[unused344]
##oid
nouveau
traps
afrikaans
##66
brock
##book
##jad
relational
pure
emergencies
measuring
112
##stad
spaniards
##ees
vein
##ddin
annoyed
delay
sacrifices
coconut
sharpened
torque
sp
giggled
[unused962]
caleb
⋅
productions
##holder
janata
exited
duck
dealings
##opers
民
planetary
transatlantic
kindergarten
[unused421]
magnitude
frame
honour
antony
##dale
mascara
##asco
wedge
researching
kari
##inal
untitled
paula
##unas
abdul
whaling
nixon
waterways
bonnet
##block
surviving
tran
felicia
bridgeport
subgroup
nasser
homes
noise
voluntary
river
price
delight
chiang
[unused413]
chests
alessandro
bold
concurrency
premium
masked
##entation
naga
autism
kindly
lsu
informally
##sbury
##icon
men
wharton
clouds
lace
mandated
drone
argyle
want
ɴ
fairbanks
ভ
leg
inspired
baron
bobby
##brick
ad
duo
design
shirley
goddamn
ensure
##vira
hinduism
preserves
dough
##疒
belle
crows
##nah
distant
destroys
sad
alleging
nawab
summer
gabled
georg
##hosh
libertarian
fuller
taipei
presently
eduardo
rains
designers
weed
##chio
irritation
bullet
##ulsive
sensor
beacon
industries
finland
advisor
morton
thorns
goes
clearing
upside
##around
paving
##ych
vamp
##ب
contemporary
barred
##tick
[unused501]
gaul
11th
##ᅮ
##linson
gallery
castro
scratches
[unused715]
##ม
wayne
crooked
targeting
β
meaningless
identification
forensic
orchestras
alter
barking
[unused558]
victor
literature
elaborate
abrupt
joked
clown
feminism
forty
flow
gee
az
ェ
##iled
contradiction
earl
356
atlanta
paths
noses
ingrid
գ
counterpart
nwa
hot
sergio
1704
##omy
fully
jorge
nursing
humiliating
##ɬ
immunity
juventus
form
##rmin
third
fusiliers
sicilian
linux
##nger
##away
integers
##cars
powerhouse
harbor
golden
##cute
disruption
orleans
recovered
governed
switzerland
professional
pairs
##eses
horizontally
uruguayan
spartans
raged
##zow
municipalities
twists
[unused9]
roll
billionaire
loneliness
##nable
1635
praising
vampires
weightlifting
skin
##yson
sidewalk
avon
pbs
##owa
lecture
cited
climbing
consumers
鈴
growled
livingston
moor
##anga
bleak
reasons
intrinsic
begun
quantitative
parc
prevailed
ix
towing
alejandro
inform
coupled
approaching
##eda
squadrons
drowned
##hol
water
repealed
devoid
bald
detector
nor
##hta
lyman
2d
##rani
promote
daily
assassination
##eli
humiliation
##enstein
suv
esq
##iva
defiant
##dc
rocking
cancel
organs
sindh
##hett
ウ
vr
hancock
reacher
presenters
##istles
##lin
endorsement
staged
basque
congratulations
yun
##rgeon
vita
##♣
suck
shore
senses
##shi
199
exciting
simplicity
[unused217]
##ist
ge
##tson
生
carolyn
oslo
terrible
christi
##loh
##cana
genetically
##oles
##eni
westchester
ħ
##ʁ
sarcasm
ask
conservation
whirled
##lain
gill
raven
##fr
curiosity
posting
love
##‒
angular
pornographic
danube
bog
ismail
carmichael
helix
moe
edwin
##uc
consultants
generals
furnishings
evacuate
flushing
rory
progress
[unused341]
##bet
##rew
seasons
manipulation
decides
uniquely
relieve
[unused706]
##ӏ
##apes
##tam
##ication
involved
advocated
[unused848]
constitution
pieter
chants
##dition
##miento
belonging
yi
龸
drove
punch
##xin
unspoken
rabbits
starters
wrapping
##drive
rattling
swirl
[unused659]
myth
##uid
subsp
21
patron
illuminating
conversations
joy
##cho
##bic
insulted
casino
vale
drugged
panchayat
cabinet
nasty
rejects
heights
zeta
central
bronze
entertaining
crystalline
lindsay
overthrow
correlation
##fu
ս
verbal
omnibus
phd
##rrie
##wide
novice
roots
reservations
available
housing
musician
spectacle
emerald
explosions
logos
happen
needy
count
##17
##uto
detected
##ab
sultanate
rounded
##jia
##dilly
conversion
nephew
debuting
ridiculous
alteration
##uating
##ped
##pal
synthesized
##masters
[unused181]
participation
manipulate
##₂
analyzed
ض
offshore
betsy
organized
marshal
bae
limbs
1826
##法
##8
##mun
previous
absent
powered
nigeria
disconnected
stark
##inator
greenwood
seen
duane
##yed
wrap
encryption
operatives
vhs
eleventh
た
questioning
enters
airport
1643
theft
categorized
behavioral
ballot
scarred
inwardly
gabon
reside
tight
kerry
glowing
cox
pouring
trousers
socialist
skating
##田
cutter
individually
kneeling
drops
principally
##ape
figurative
##cious
neptune
properties
##fort
ambition
##48
##points
dignitaries
thomson
eel
tanks
##ante
mapped
mitchell
navarro
##inate
trey
capitalist
テ
##⟨
goals
virus
##kis
dare
june
[unused624]
[unused215]
secret
##hab
##phila
ী
larvae
indira
affiliated
coloring
sonny
begging
advertisement
nicknamed
##vating
charlemagne
##tm
needed
##省
sighing
surgeons
[unused233]
wen
took
info
varied
defeats
mode
₈
##20
spin
softball
stiffened
tracy
killings
lecturer
162
husbands
barton
##lts
silesia
nguyen
kamal
237
rr
##rwin
maker
snuck
leonid
elects
solve
backside
##ching
weaving
mermaid
candy
bail
##ion
bertram
##100
universe
gazette
plumage
serious
racism
##mani
wadi
contract
fk
##edes
lime
nationwide
nipple
##och
bulbs
clinging
tesla
randall
highly
search
##yt
ley
away
fei
keeper
butterfly
hill
headmaster
granada
##nac
wil
handkerchief
車
##aja
daddy
imaginary
keystone
accountable
pga
##ᄐ
pork
physical
operator
companies
##cier
cd
[unused378]
processor
medallion
subsequently
snowfall
operas
accelerated
gm
gap
straining
turrets
heat
610
##rva
sighs
reasonable
payne
rake
lottery
332
##տ
attempting
blanc
professionals
##riding
possessions
working
##bron
vols
[unused119]
spears
clenching
canceled
##pore
##ner
sheridan
##mental
[unused863]
donnie
mohammad
much
jasmine
rods
orphans
spur
owl
steak
soviet
diploma
lesson
fates
fractures
streets
##dina
team
biker
[unused895]
##olved
##sus
burden
kannada
millionaire
allies
indifference
specials
safer
swans
cebu
brest
‒
lex
proving
undertake
##der
ski
cursed
years
adults
contentious
ф
tidy
stripe
bias
colorado
cincinnati
##ן
contend
evil
biting
atlantic
officially
[unused121]
gina
suzanne
registration
founded
gravel
##stick
warring
sportsman
china
conquest
val
grandmaster
neumann
nicaragua
##pit
##э
routing
##use
mani
moderately
##rued
pumpkin
strain
fallen
chang
producers
clarinet
availability
jaenelle
favoured
samples
solvent
##icing
highlands
##avio
bribery
deal
managed
850
kraft
王
whenever
victims
##小
##訁
franks
throbbing
lens
##wr
warrior
##ʼ
vaudeville
word
##hair
aggravated
conquer
timing
commune
##vis
##iser
unpredictable
flames
229
[unused44]
##gn
asteroid
pradesh
extensions
spence
byte
brooding
cadillac
owe
tick
51
considerations
donors
##hoot
privatization
##rba
##分
disagree
grandson
choke
203
##psy
##works
は
activation
##漢
sobbing
wyatt
crises
affiliation
route
magic
##lity
##connected
218
##wad
sheldon
linnaeus
devastation
artisans
##lizer
[unused457]
about
hometown
1950
cyril
wryly
execution
##bil
smarter
assume
##ama
spray
[unused410]
specifically
straighten
202
miranda
##a1
teenage
classic
ム
##ouse
durham
fertility
exercised
orchestra
hash
##osition
[unused615]
є
abroad
astronomy
kildare
##rou
文
gunther
callie
escapes
00pm
praised
moines
quinlan
joao
blockade
montana
eliminated
nec
ascension
[unused590]
bumped
reopened
jamestown
14th
synchronized
fridge
##put
心
reign
nottingham
##missible
##ᄊ
bel
breaks
reconstructed
##kus
chavez
##hunter
##care
[unused244]
publishes
consists
mbe
tasha
##★
sink
comprehensive
##sher
aristocratic
brandy
irene
resolve
col
defended
tails
pennant
##tering
suffrage
jul
[unused249]
surrounds
2006
オ
fort
##bar
been
rae
dharma
[unused461]
boost
wan
mahal
##ף
noting
##gned
penned
victories
2017
director
##uron
density
micah
conspiracy
semi
bwf
autonomous
infiltrate
willed
transmit
three
[unused784]
mendes
violating
##iot
organizes
##ntial
₩
primitive
##ka
quota
berber
employment
reduces
surge
codex
##ced
cantata
serra
clean
contribution
palestinians
bound
##plate
[unused959]
##iferous
hepatitis
##sive
wanted
retail
mary
swamps
aztec
updates
hoop
divorce
##keeping
drunken
reelection
pantheon
thrilling
dies
nigerian
veronica
łodz
invertebrates
tko
philip
isotope
1921
continuous
##ded
##eu
passengers
monarchs
asian
##res
##tosis
inaugurated
segment
faulkner
ownership
laurel
[unused288]
choi
##rand
##ick
ᄆ
projecting
mohawk
salem
crash
billie
ტ
harper
##₇
average
##shu
leopold
macbeth
promise
##村
email
forum
##utter
awkwardly
##↔
green
father
welfare
rim
李
norwood
cape
germans
[unused951]
berkshire
strata
gail
ト
##ush
traverse
searched
buzz
shipbuilding
centers
commerce
##form
mutant
##onne
duran
£
drum
spoiled
synthetic
populous
extreme
nedra
##陳
dobson
fender
defects
##yuki
augustine
mil
carlos
##nare
##wk
retracted
conspicuous
##yang
fairness
fingerprints
oakland
chorale
rome
intercept
reducing
machinery
diaspora
pitchers
emirates
violin
deepened
bonuses
exchanged
ukrainian
##ধ
]
xvi
1830
tropical
metz
岡
greatly
attractive
service
wounds
##kata
intensely
credible
obama
##や
fabricated
huts
marcus
machines
wolves
increasing
distributor
charming
inherited
mobilization
styles
towering
standalone
##itte
coordination
nilsson
multi
arsenal
##lington
##ulated
shaping
nouns
style
construct
##gut
glance
##osta
patrons
photograph
##dar
indonesian
##白
molded
kellan
chile
ashes
torture
[unused719]
##cini
ottomans
অ
winner
[unused323]
unknown
hopefully
capturing
##lastic
appealing
sailing
##ress
##inating
penthouse
##etti
abused
##rcus
##eno
hardcore
instrumentalist
envelope
khorasan
##gami
66
peach
η
840
magnus
militia
##ulton
##dling
orphaned
##unciation
[unused660]
organise
doherty
pleasant
notwithstanding
advocacy
hackett
##zer
##erina
apical
coded
kicker
bret
र
closure
goodwill
gerhard
fools
sobs
##oma
octave
sally
opens
cyprus
mauritius
zion
slang
##fixed
##uba
descent
beliefs
rodrigo
##taken
internationals
##oya
##zing
##uch
permit
lass
tehran
久
bidding
identifiable
##glia
lick
hard
fife
hummed
brick
20s
ruined
blur
##heimer
revised
jury
av
benoit
international
##lit
##₉
taste
jokes
poorer
##ivated
colder
angola
fertile
junction
vanessa
winced
roar
mass
toro
ousted
corridors
snarled
diverse
hare
fascism
##bolic
strive
soto
auditions
uses
מ
allied
##stadt
textures
[unused502]
##rington
prehistoric
value
chunks
[unused880]
##orum
nhs
tal
ན
##sphere
ᅲ
singles
pee
2
variables
shandong
decks
##nated
cessna
stacked
twain
pg
##ina
aggressive
hesitantly
swirled
dwyer
convergence
electors
emptied
attempts
bomb
scores
streamlined
illnesses
defenses
appointing
remixes
rhythm
drying
messy
hospice
theorists
brittany
scale
treatments
capitalism
petit
##titles
##ster
主
desk
##oke
284
audio
boundaries
buckled
##lu
##tra
blazed
stare
anticipated
safely
eva
equals
##‡
faerie
equity
coefficient
##ao
monumental
##eyer
lds
climb
thrusting
steiner
wilcox
ӏ
£5
##そ
apprentice
marxist
[unused30]
keyboardist
banished
##vey
represented
##rin
ण
##и
cancers
##kers
##ur
gil
##tore
hoax
[unused205]
holiday
##野
rai
sensations
buddhism
[unused908]
tenor
##ᵇ
imported
tam
[unused952]
##isan
standardization
toast
material
baths
laptop
gregory
pointed
##一
infinitely
cultivation
uniformly
paul
‖
packing
bb
conversions
recognition
lady
mls
homme
##wire
fits
antonio
##36
sulfate
1939
##stems
##ption
ß
bane
##af
richie
square
settles
rays
pediatric
attributes
93
##chee
humiliated
orthodox
dots
policemen
trier
privateer
betrayal
critics
[unused189]
ک
innings
invitational
tailored
inline
orchard
streaks
1742
##め
##kova
angelica
heck
elder
agent
shouted
conceded
lush
regatta
demi
princes
macy
exclude
##anor
ₐ
beginning
[unused866]
horton
istanbul
phosphate
⟩
mount
##elia
rings
fried
podcast
remixed
##ロ
universite
vehicle
pomeranian
surfaces
fugitive
[unused349]
advantage
mused
mayfair
scaled
##ggs
constructive
superseded
aspect
intend
1856
tall
##tos
##app
workshops
sack
passports
morales
tires
narrative
lock
##辶
sins
gallons
##yad
vibration
warsaw
##uven
[unused667]
turbines
excused
cyrus
medley
eton
stylistic
embark
[unused173]
##ﬁ
interference
[unused85]
doom
skirmish
patriots
interact
lacked
##s
wolfgang
improving
lucivar
filmfare
garlic
difference
manhattan
monks
dent
##resh
##guide
cornered
##吉
inherently
226
suspicions
ן
##sin
▪
ion
flourish
extracted
glancing
infused
186
##に
tired
recovering
ɛ
sgt
descendants
otago
conditioned
purification
##by
##ט
proto
clinic
intruder
saigon
begin
media
slogan
curled
missouri
ponce
shave
##cular
radcliffe
ь
takes
munich
[unused778]
exit
fuscous
songwriters
vi
chronic
pneumonia
track
throttle
prostitution
tradition
somali
tuck
##ive
motion
mk
##ut
rao
[unused606]
##atory
##gp
fairchild
tarzan
shillings
##hre
gen
##sky
ministerial
bargaining
momentary
##note
willy
paso
printing
juvenile
##fest
wexford
rulers
proceedings
structure
financial
lifestyle
housekeeper
ff
##φ
##ᆷ
ioc
ancestors
duke
gains
leaped
##inae
weeks
enduring
wanderers
##rest
possessing
sheds
swiss
confident
##ں
##oton
timor
construction
acknowledge
##ェ
templar
shopping
survival
##24
routines
nightfall
1884
recess
criticizing
compute
##esh
##dara
##《
mare
clutched
##ts
shuffle
spacecraft
isabella
whimpered
antigen
[unused692]
distinguishes
hack
trader
crocodile
specialising
brittle
similar
sasha
sloop
plunging
alternately
mindanao
tributaries
hostile
icy
assent
thomas
##ges
pops
depicting
singapore
messina
battled
reddish
describes
kite
##ffin
handful
mouthed
blackburn
sic
nickelodeon
finite
capt
plastic
£2
##mons
articles
der
petroleum
disappearance
winked
##lun
sublime
duct
leapt
mayors
jammu
creating
##־
backed
[unused11]
sounding
mrna
nova
1771
narrower
hey
flight
[unused322]
tunnels
lama
nazareth
1775
pascal
nick
situations
gujarati
##lster
##∅
featured
beasts
waterloo
phillips
##nl
sprayed
[unused114]
##ssi
##ap
soothing
##vale
interpreter
##400
##lander
turbo
malaga
sized
ع
holm
##vsky
zach
ᆸ
denny
worked
bought
charting
[unused611]
develops
disciplined
winslow
島
##tology
combatants
[unused278]
archibald
regent
sermon
##♦
analysis
simultaneously
flicked
existed
hadn
##fus
##rified
##aly
tempered
acquitted
technologies
521
eels
confidently
##oo
[unused178]
##kala
submerged
wimbledon
##oise
district
##ish
nostalgia
telling
seventeen
stock
sighting
omaha
##rzburg
griffin
apes
mediation
rudd
pile
roared
mahmoud
179
ং
##mad
##囗
ш
##aves
irina
quadrant
語
boosted
eco
dying
detective
millimetres
江
beautiful
farmhouse
gutierrez
##eau
automatically
lynch
archdeacon
scents
##eus
graphs
##島
silva
chalk
84
graders
sore
xp
chester
region
sesame
dazed
hinted
elected
byrne
##enko
##foil
##ん
disqualified
overturned
[unused764]
shining
lenin
sunglasses
lew
[unused409]
must
##б
##ᵢ
##ducted
##ello
southernmost
##acies
##ation
informal
##rant
fifa
prophecy
weights
‚
redevelopment
##pressed
boom
describing
markers
##ס
ares
bottoms
##寺
spores
tia
ale
ravaged
altitude
frazier
##ji
churches
1720
ʳ
awkward
good
##─
lambda
##rift
arab
##vington
fable
luckily
if
response
newscasts
##uki
games
inhuman
disrepair
enactment
sur
aged
luther
meet
near
excel
##tituted
bruins
##星
bishop
coa
lear
##market
origin
[unused777]
solitude
thumbs
earlier
spiritual
averaged
accomplish
weaknesses
##nya
systemic
antigua
##カ
noelle
##erence
cisco
rocky
distracting
community
underlying
prix
eritrea
##ckle
steppe
seriously
leases
terminology
playstation
[unused252]
realize
##uta
enlisted
[unused623]
henry
1819
stalking
auxiliary
implicated
[unused478]
[unused100]
middlesex
##cta
vegas
liza
earls
[unused319]
oregon
[unused146]
##ˣ
superstar
ode
institutions
na
crimson
cycle
##verance
##hart
1805
##taking
ᶠ
accelerator
prc
##ව
emil
to
##sdale
shaded
prequel
##zio
lowered
1983
smoothing
wired
fastened
s
##fold
beijing
picking
##ths
区
##cy
furnace
coast
traveled
margarita
##sibility
josh
modest
chambers
##rator
sparkled
per
babies
aide
##光
noble
##trom
expands
zoning
evicted
h
honest
##oca
guarded
##chers
cupped
resigning
advises
norman
##bir
alias
##ptic
concord
##ano
bishops
workers
##cp
[unused846]
loved
entirely
##ɴ
505
##ories
sheath
soloist
studios
climate
geelong
writ
inning
partnered
##sten
confiscated
##utation
tamil
##champ
38
##∨
awhile
relay
embankment
countdown
descend
eighth
underwent
die
synod
##pia
ghanaian
poem
damian
##aldi
woolf
flashed
dragging
##tral
sneakers
possible
nascar
conversation
¥
braid
heaved
ʰ
##nut
glaring
lake
repeat
##会
##ტ
greyish
15
ா
##rnik
gleam
api
implementations
670
gray
##み
possesses
##gi
mead
josie
squads
strikeouts
##sett
kickoff
messages
carbonate
[unused424]
accent
##nt
trick
weighing
ャ
##kes
fragments
invasions
shovel
scarborough
emory
publish
touchdowns
[unused250]
labyrinth
fixture
channel
##ger
openly
likeness
##bot
madonna
ma
slowed
historians
20th
annexation
astronauts
graded
##ume
tuition
地
filters
mice
tortured
##rman
bypassed
立
noah
sprung
instructions
[unused669]
assembly
novelist
##ben
reconciled
leyte
garage
its
dealer
##neas
treated
rabbis
directing
floated
topographic
উ
icc
remnants
cappella
##esa
salvatore
circulating
benfica
norton
##work
forged
##21
knives
bison
holt
aero
tx
[unused738]
yeomanry
[unused183]
元
advertisements
dolls
verlag
mister
vowels
iucn
observation
baku
instantly
1996
ruled
mug
།
vicente
##ctum
heavyweight
polar
[unused38]
340
##（
like
spine
peptide
ceremonial
##rata
piers
##nally
executed
draw
prestigious
severed
##ional
helen
hokkaido
busiest
##held
exponential
‰
definite
gotten
interval
##eral
dalton
clothed
just
publishing
portion
会
ana
[unused812]
##int
venerable
slowing
olympics
gardener
jameson
##ezer
jun
pavel
##jhl
furry
italiana
##grapher
spokane
finley
sculptors
sheer
discuss
##lion
##rno
silvio
parochial
56th
##ilia
##ᅦ
aluminium
phenomenon
pull
##wed
mark
notified
##tino
leaked
moaned
excited
grazed
##iy
loretta
tender
##hog
please
devils
speaks
sorority
##orne
spelling
dick
helmets
apache
tribal
##sume
cdc
revolt
mcgregor
pains
oversized
##door
gus
crops
vulture
##bby
glove
maturity
pots
mammoth
medici
ankle
brushed
undone
##ष
blink
movements
impressions
spitting
stigma
##65
width
fangs
olympus
peered
endurance
##rgh
malvern
pathway
##lou
##ssed
sunrise
##च
##正
kala
persuasion
armenian
steamed
##ack
monopoly
previously
outputs
##8th
##秋
traditionally
earnest
barr
nassau
2013
##inas
51st
remove
##oche
bark
improves
separated
oversees
##ぬ
wiley
outta
concacaf
合
grandparents
##ʉ
interacting
##tream
##lli
pc
##ₚ
alternate
adapt
aachen
##dah
georgina
proximity
informs
contracting
##yte
##eti
##uru
jumper
##ves
234
[unused406]
restraint
suburban
lloyd
dominates
used
##lika
##rley
aquatics
[unused63]
eddy
adapted
##chet
classroom
sailor
color
##hoe
julia
121
chandra
exemplified
prone
impose
preparation
##ear
puppy
hampered
responded
hindi
hotter
aboard
省
pitcher
1690
goaltender
ravi
##dt
aleppo
persons
nominate
##uf
##plication
##mament
##ted
centred
##aq
385
harley
secluded
prints
imperialism
brunei
goethe
nouvelle
snails
willem
##ש
##巿
271
enforce
deposit
24th
[unused750]
1979
incorporate
wing
unite
sachs
brightest
vague
beyonce
reversal
gnome
biography
meal
te
##gli
##neo
dictionary
impress
tongue
##dae
unlawful
procedural
##roving
cigar
donetsk
##₊
beaux
[unused383]
stream
labeling
[unused59]
[unused500]
स
[unused970]
kristen
hamas
##tma
climbed
##tale
patience
netherlands
flee
dispatched
mayoral
##folk
##buro
gaza
##lative
ronin
##uka
[unused577]
##igen
immortality
hesse
miniatures
fitz
establish
pending
constantine
glanced
rode
vertices
syrup
##rger
theatres
intersect
spinal
##hani
registered
ornamental
milestone
##ric
##thest
jr
anxious
sanctioned
falcons
54th
berth
##actic
##dor
##box
hart
[unused82]
##ɔ
<
alpha
amplifier
assyrian
vengeance
guaranteed
sinai
##lais
##coming
delightful
specialty
collected
overcoming
losses
##yk
canals
cinder
pharmacy
gp
sham
telangana
政
expenses
rather
luciano
spontaneous
byrd
##chule
southern
hatred
nineteen
##ith
##ك
coming
impacts
percival
landing
[unused983]
nov
cemetery
scott
門
rosenthal
##¼
library
03
mal
adriatic
concurrently
bell
##acion
penetrating
##rgan
1959
intense
stray
##lho
jeanne
deserves
gems
retro
##tp
dona
[unused111]
easily
deteriorating
stained
ニ
douglass
refusal
taunton
##ᵀ
fortunately
[unused573]
roaming
listing
perfume
directs
##bari
##venting
1970s
##inia
theologians
martinez
joins
pays
reflect
dorset
crossbow
chalmers
liam
complain
vito
##ग
bust
triangular
residing
##地
よ
[unused130]
invaders
jin
nationality
##lay
guns
##ide
gloria
wages
##ove
nature
camping
##apple
possess
montgomery
outbreak
##olin
gunner
specializes
curated
propelled
##dial
battista
amulet
hair
filmmaker
fingertips
schuster
##h
##hiti
[unused881]
##ander
warning
tendencies
bernstein
##sund
robb
##t
##laus
queensland
domain
gemma
ranger
abuses
ina
[unused571]
nomadic
version
drama
translating
##明
sweetly
listed
mocking
pitchfork
carry
emptiness
conscription
briefcase
god
wakefield
##uche
##kley
removal
soaring
dad
krishna
1786
granville
##rera
victory
humanity
##こ
catastrophic
brewster
sas
enemies
filming
alternatively
gossip
compact
[unused3]
##gb
acheron
tod
scottish
angus
ি
tomato
location
theaters
marvin
unsuccessful
handicap
requesting
senegal
氵
##urs
1825
##udy
manifold
lectured
woo
yeah
##香
cars
otherwise
litter
##ང
verdi
dec
##db
barron
choreographer
uneven
grabbing
accusations
138
ivanov
##ᅥ
manifestation
server
goodnight
damascus
translates
##12
welcomed
fewer
invade
approx
glorious
greatest
##ious
periods
।
劉
gao
##zia
##kia
vega
sous
tilting
greenland
obedience
unreleased
ezra
compulsion
##ologists
vegetables
overview
assistance
echoing
wealthy
founders
##lian
query
few
##gata
##500
##gat
[unused546]
435
##ostal
bye
##zo
##ক
roberto
pressured
occur
ramirez
deutschland
say
sanitation
mortally
animated
holes
1876
rossi
ufo
ბ
pyramid
soccer
ᅴ
motionless
endeavor
amazingly
health
estonian
₃
bathroom
##get
como
##和
[unused991]
lawsuits
afghan
subsidy
gardiner
substantive
rational
meek
collingwood
lawson
eliminating
fat
coupling
[unused476]
suppressed
##英
sculptor
wright
90s
##di
##80
attendees
##band
##fb
recall
spare
kg
salisbury
##oda
sparrow
islanders
##ials
sava
ceded
##nge
scraping
guise
bucket
fcc
corner
then
protein
[unused458]
citation
paige
##hopper
##arns
₀
swollen
tbs
alfred
induced
grades
decorative
ʔ
reunion
youths
spire
[unused155]
downwards
sour
commemorative
daytime
reject
quiz
song
nearly
official
##wari
browne
unit
pledged
awful
ideal
expectations
use
renovations
finalists
overlooked
examines
parasites
##gly
gabrielle
regulations
denmark
being
joyce
archeological
accustomed
arranger
fleeing
aug
pat
bandage
activism
##lein
[unused427]
determines
antwerp
paralyzed
ankles
modification
crack
rogers
neighbour
[unused934]
##rook
49ers
1618
定
islam
isaac
##rak
receptor
guildford
##ᅡ
hips
244
##ana
monthly
hannah
bonnie
##պ
replied
wake
ventures
addressed
aperture
legions
pointedly
rangers
##区
−
enable
tallinn
[unused241]
armour
reproductive
poverty
jagger
##piration
weary
breuning
nationals
sucker
direct
cesare
motif
matter
hasan
kids
pine
##oum
tonic
commodore
tun
coach
fiercely
talks
##uated
adjusted
grupo
##थ
dismissing
shen
crater
calabria
[unused662]
beloved
musique
##cliff
ね
endless
arguing
83
kingsley
hundred
walt
##tze
##ʂ
##nity
salary
sweeps
[unused943]
hanoi
yearly
encountered
supplying
shelters
massif
mfa
jakob
##ppe
deployment
swam
##ult
pens
1648
##eum
brazil
midtown
eyed
vacant
boone
yao
paper
cerambycidae
##rave
vegetation
cosmic
effectively
bolton
ambient
##pg
week
strasbourg
reformation
washington
chuckle
saturdays
gordon
born
carla
belong
[unused147]
##iform
daze
unless
doris
##edly
##橋
kazan
ी
impressed
wrinkled
fred
##₅
trying
1865
helm
convenience
captained
[unused15]
bouncing
##rade
propulsion
playoffs
##athi
firearm
bulb
訁
##ghton
armored
raja
##ᅳ
fluorescent
##out
##liche
but
##mme
enthusiastic
##icient
##rol
լ
peru
##wai
greenville
##四
[unused974]
disputes
termination
[unused132]
lavish
##roved
crawley
shake
##codes
##jic
1864
simpsons
lissa
theatre
##ignon
fluid
selects
##ock
echo
listeners
liang
火
pack
captive
##gall
submarine
splashed
cambodia
rutland
##´s
assign
regulating
[unused257]
shiny
stresses
masjid
##ctions
investigate
glasses
amino
##kushima
iced
grenada
prefect
##fleet
soldier
hospital
700
walters
[unused811]
zur
condemn
section
acre
chuckled
##logists
gangs
##reus
coaches
respective
organism
girlfriend
##enberg
100
vikings
uniforms
‑
athletic
original
acclaimed
##オ
xiv
86
piccolo
silver
21st
warehouses
microscope
##ues
canned
chanting
##gawa
ceo
speculative
rumored
retired
verandah
descends
eureka
##dio
no
sell
thompson
kb
albans
enrollment
prosecutor
vanderbilt
##pins
##ckey
##vo
socially
##an
vienna
hats
⅔
regards
##aldo
ky
resentment
allegro
implement
bits
whereabouts
scanner
pregnant
nurses
##ワ
[unused816]
addison
##nator
##⺩
slammed
locality
##bation
belgian
many
tolerate
writer
##ject
comrade
##ake
雄
##ulo
backup
qi
clary
##nage
##立
radical
domination
caracas
divides
appreciated
constellation
75th
begged
trait
##ited
unsuitable
bunny
publicity
pastoral
proclaimed
##izzly
##vre
##ז
sweating
rn
##て
agreed
commonly
∇
referee
##ł
completed
demos
##ם
knit
##g
[unused627]
venezuelan
tipperary
fox
vietnam
temporarily
january
sire
matthias
odds
slug
deluxe
ji
swap
radar
prospective
servicemen
mama
enthusiastically
1762
symptoms
lightweight
mysterious
densely
blasting
persist
##gga
twenties
advised
##rlin
##mple
gma
##ups
socks
barrister
highway
sadler
july
accumulate
[unused511]
stamped
forwards
subdivision
##eves
12th
rca
ט
1200
wwf
dissent
##マ
##ₜ
vicky
devices
##tein
denomination
宀
guitar
##wald
rights
overhaul
[unused647]
prior
rides
wehrmacht
devon
explains
##elin
betrayed
atp
trains
rochester
discharge
##bruck
indigenous
##lah
forthcoming
lodge
declares
##omics
sheriff
married
trades
foreigner
follow
english
##llus
##ael
##ʎ
backwards
backing
catalonia
[unused644]
##nst
freedoms
detrimental
assemble
successive
penetration
##স
lined
169
writes
owned
[unused206]
##ashi
regimes
ascending
##tops
cows
programmed
##ville
##lite
dryly
[unused238]
nap
joke
acknowledged
[unused345]
epilogue
##ffa
fr
##bots
[unused681]
naive
trickle
commencement
sometimes
flopped
##abad
##ರ
bride
##werk
tourism
##hong
##ailing
couple
latvia
banjo
##氷
necklace
orb
[unused932]
authors
harald
course
1770
1869
palaces
levy
woken
experience
dress
guide
ren
unicode
introduction
express
gave
convoy
milo
investigates
[unused157]
licked
stairs
merged
171
##ains
buddies
shatter
log
wai
lola
ك
sustainable
##tis
##tan
speechless
##ɒ
manipulating
[unused190]
##itas
committed
penelope
culinary
##三
summons
papal
visits
tsunami
indicators
carver
unseen
technique
mutter
satisfaction
whisper
doomed
##¡
[unused806]
brutally
schmidt
[unused883]
fault
[unused965]
lucinda
hate
acclaim
loop
##roy
##戦
sought
dealers
##rl
nos
##atal
tape
families
azerbaijan
accounted
prescribed
feeder
stepmother
##π
##ryn
td
senators
airfields
liberia
##ions
label
1905
specify
naked
##enting
going
ind
restrictive
##ک
##quisite
elliot
sandy
assessments
truth
##utable
##ations
60th
##sie
burr
actions
maiden
deciding
avenge
##kov
##ragan
craving
meteorological
[unused877]
tristan
##ground
mcmillan
1604
guardian
##ᵖ
antibiotics
looted
turquoise
von
##maid
##比
genome
##olis
powerplant
pietro
measures
[unused484]
cameroon
protests
shores
crying
##igraphy
levin
bulls
る
[unused35]
reflecting
brows
##az
lightning
pounded
insects
rubbed
283
enjoyed
risky
cartridge
う
criticisms
sweat
bravery
##dington
sera
around
founder
reigns
##gr
sylvie
electric
##tri
dolphins
surrounding
inquiry
sterling
frescoes
##sun
cellular
lovely
horace
##ram
environments
##51
gracefully
ipad
colin
def
##ˡ
##म
gladys
before
[unused187]
bee
positioning
316
deng
##ora
sniff
##bution
margaret
serie
proceeded
reserve
derrick
##tries
odi
stations
barefoot
anson
titanium
troubled
relevance
noisy
##able
societies
brooke
stabilize
transaction
comparatively
selangor
1836
ache
armchair
protesters
newsletter
[unused813]
##enia
##cript
brasil
surrender
artery
exterior
compassionate
folks
packers
##nson
demonic
##sell
gershwin
##ncia
sloane
adulthood
##inian
mons
principles
cote
##奈
[unused352]
forces
##м
clip
peshawar
ᅩ
behaviour
slovakia
leicester
##hall
newcomer
eve
hopping
pretend
clashed
vocalists
／
umbrella
##shima
squad
moroccan
##otide
referred
tag
differentiated
galley
sash
gets
120
crusade
towns
##mum
watkins
driving
instrument
skepticism
bukit
##igate
from
##hedron
middletown
us
distance
##dic
nipples
garrett
helplessly
##mina
classify
stories
bland
blushed
cleaning
rag
gasoline
spokesperson
commonwealth
##石
schwartz
ص
##ti
##ュ
bulky
headline
princess
olivia
web
possibility
worthy
σ
kn
##arth
extras
spiral
auditory
##enburg
filtering
##pa
##lius
weekends
##avia
humid
avoided
daylight
valves
yankee
slacks
kenya
headwaters
footsteps
dfb
byu
wanna
hosting
322
uh
southland
dublin
narration
sentenced
barak
geared
selfish
hovering
girlfriends
legal
period
amusement
126
opposed
meanings
boise
louisiana
pinched
bearings
bedrock
##thy
[unused12]
moldova
bob
be
printed
miles
scarce
sharing
glitter
##jiang
chest
##ի
mythical
art
橋
newest
1a
cover
##bble
##amy
incomplete
ᄃ
activated
averages
##wives
plead
conceal
referencing
##事
ʋ
relentless
rogue
lingered
click
woody
dade
##udence
ա
worcestershire
fibre
bonus
punjab
errors
retailer
cases
spitfire
harmonic
##郡
32
jem
renewal
regulate
sketch
leicestershire
skull
##bee
yell
##oga
offer
directors
hotels
1799
shipped
goodbye
##arus
##ml
##♠
##kee
chuckles
##insky
[unused620]
ย
ceiling
beam
dislike
maison
centre
а
luxury
spurs
halt
planned
dustin
locating
hazards
albuquerque
instituto
j
pi
rf
[unused58]
archers
##nick
accepted
normandy
birch
straight
wrocław
manufactures
wrestle
commended
piles
recognizing
jack
employed
1400
kills
hurdles
unitary
##bill
hodge
ب
rows
吉
boris
[unused707]
##num
##berry
seller
professorship
race
imposed
slightly
windsor
unnamed
bays
cornice
display
##rance
fall
javelin
federation
commentator
##є
cave
realizes
facilitate
overrun
weeds
emitted
##dorf
proven
##pop
geographical
cadet
continuously
broader
directional
ར
bum
commuted
retreated
sinclair
healer
##ega
qualifying
phone
processing
thicker
taxonomy
lasting
[unused102]
citadel
seal
thermal
strengthening
takeover
[unused770]
treasury
reddy
rockwell
roanoke
staunch
abe
sigma
wooden
mixes
[unused953]
exposure
session
chapters
##lance
intrusion
discrete
air
##rada
thousand
circular
capitol
glee
##now
relocating
townsend
kamen
manual
[unused198]
jug
poked
chop
##dium
middleweight
##oese
1928
marquez
amazon
suicide
##pha
compilation
fatalities
eighties
asshole
creep
solids
indians
clears
tree
henley
konrad
robbins
##hman
boyle
artemis
engines
##uria
ﬂ
lectures
##lov
[unused164]
tampa
creators
smuggling
bitch
diana
খ
formulation
##iling
##bund
stunning
contain
thee
catherine
personnel
grammatical
potatoes
hc
guggenheim
restaurant
##sted
##fan
calgary
მ
crouched
##edo
papers
##anies
collapse
theodor
fronted
whispered
marked
deborah
redhead
malaysia
crosby
##ara
##dern
##ceae
tooth
distributing
second
shipping
prize
[unused849]
inorganic
pulitzer
wife
resistant
##¹
†
clearance
excluded
refinery
480
[unused687]
##akes
ʁ
zaragoza
relaxed
explorers
cornerstone
fuselage
entering
tyson
interrupted
efficient
magna
1889
##osphere
281
bobbed
registry
##tub
##ρ
fitzgerald
##late
colony
extinguished
##ius
abandonment
boating
reprint
depart
pirates
##aman
longed
cater
corresponded
##ম
let
mein
loans
detained
interpretations
thick
meaningful
throughout
fibers
frozen
reiterated
crested
nightingale
canton
40
distribution
stale
pedersen
210
[unused672]
adequately
growing
crimes
jacobite
acacia
leased
stirling
##ذ
participated
wrote
ursula
flyers
former
##尚
rhode
weakened
schooling
##llie
69
concept
tt
প
affordable
guinness
corbett
curator
zodiac
designing
paw
accompaniment
##sser
##zek
court
forms
##nay
sabine
compete
avengers
heinz
##tures
##yu
##inking
martial
visibly
##uation
stephens
scriptures
progression
ק
inverted
1875
##mir
．
airship
manipulated
##yah
hierarchical
barrow
superstructure
stern
##ores
##ন
###
influences
lump
ட
capita
exceeded
201
##iti
土
petitioned
tiberius
award
appropriations
##tula
indicating
##ratic
ruins
mhz
showered
karim
chair
captains
these
project
dessert
catalog
alex
researches
mercedes
manga
hari
stepped
maitland
nets
smiled
bates
transparent
flaps
defaulted
dunes
tasting
moaning
cyclone
advertising
cafes
##₄
chopper
##aneous
bills
shane
electro
graeme
distal
david
undertook
[unused841]
fever
‐
saloon
penetrated
posters
gorge
[unused710]
##via
demetrius
convicted
herring
urges
##lift
##logic
cowboy
1907
##kill
proportions
illegally
wealthiest
weird
thinkers
congregational
culminated
321
attacks
whip
grabs
peering
##kulam
plumbing
sainte
myra
obviously
##vite
admit
ally
##&
##craft
##elled
questionable
comedians
century
##ste
junior
greeks
catalina
ptolemy
paddle
digital
1016
##lf
##ril
straightforward
geschichte
rigid
broke
demise
onions
1980
feeds
tracey
inhibit
donkey
##bedo
precise
inevitably
1985
jackson
flew
##zal
dante
galaxies
main
rovers
poet
usable
lessons
rolls
eden
responses
##mers
dickens
##vron
1701
dna
##ھ
##mat
decor
##fell
##zers
marjorie
redwood
as
grassland
boiler
unionist
narrowing
sierra
##ecin
supervision
purdue
jean
tasmanian
mastering
renamed
##owski
##ife
crystal
morphological
[unused814]
recession
bitten
vera
beatty
depending
exposition
##rosis
additive
##花
teach
##belt
幸
mind
##ference
55
vowed
##rvis
##დ
perfection
homo
llc
offset
harta
内
30th
dresser
eagle
airs
amanda
rafael
##oud
intermediate
boats
refining
scranton
centro
compromised
##ids
##physics
[unused384]
abuse
heroes
trojan
hana
include
seville
comparative
admiration
houghton
##lder
hindus
[unused337]
elton
##systems
contacted
napoleonic
##相
##ents
appleton
stumbled
##ois
brewers
speakers
##rford
dangerous
м
trusted
duet
programme
wagon
##eet
clarity
brothers
cobb
barrier
##ර
assassinate
creatures
##ative
coffee
kylie
aroma
menacing
argued
deputies
大
accidentally
215
hearted
myles
guru
##nal
warriors
architects
harlow
instructor
##dity
##bek
nice
trondheim
islamabad
guys
tough
gerry
relaxing
william
hockey
holloway
decent
understood
[unused783]
proportion
exemption
starvation
businessmen
ross
rowe
designer
gasp
statehood
sponsors
##ulent
memory
philology
##iae
coached
mine
robin
##tlan
[unused106]
##udi
##iers
c2
imagined
##sper
baked
##خ
maids
bearded
##atz
judgement
გ
pittsburgh
moves
obesity
newborn
cbn
[unused835]
##ders
essays
discreet
grocery
##lore
scrape
##bina
subsided
[unused229]
loco
mint
hates
piedmont
##pio
##drop
versatile
##bai
##dong
tides
mckinley
##bility
castles
divorced
airports
morphology
freiburg
alvin
{
cary
～
##rogate
stones
sigismund
ナ
essay
ashe
##thed
shoot
starred
⊆
foot
highways
##la
##ilde
saxony
curls
hungarians
disagreed
un
pollution
jedi
[unused71]
hosts
ml
severely
##sions
430
##brates
scholar
flashlight
འ
tennessee
stalls
desperate
desperately
rents
competing
although
1995
hemisphere
insults
rotated
bronx
stylized
##ע
approved
johnstone
三
famously
c
fiji
collectively
gymnastics
skilled
##上
[unused794]
##gar
worship
[unused666]
correspondent
hezbollah
##orescence
tasmania
scare
um
##ք
disposed
valkyrie
##ization
jessie
##arty
##ney
lawn
wires
guarding
trinity
zheng
268
720
mca
limitations
obscure
frankish
acquiring
ingredient
sibling
creaked
algebraic
##lden
##cake
geo
milky
breathless
taliban
nokia
neutral
ethnic
1612
[unused691]
biplane
ᶜ
east
brenda
##δ
##logram
##cher
statistics
amtrak
##weiler
malmo
##ciation
occult
chloe
foods
flanagan
##勝
instructional
sophie
1723
annie
harmonica
required
ล
breathing
shelley
##27
naming
passive
sculpted
buying
editors
##ossa
factor
mw
partisan
##保
##00
testament
pear
660
consistently
platinum
tamara
##drum
sampson
[unused517]
actively
stabbed
snaps
logistics
raided
roi
dishes
pillows
bop
[unused610]
incense
thin
bedroom
##bank
क
weren
marines
crowded
cyber
shy
##idium
tau
##llary
bce
vertigo
hanging
rosalie
##楊
crabs
##nc
##law
personality
boyd
go
picture
mattered
##ى
[unused414]
dotted
georgie
extension
cricketer
annex
prolonged
##佐
depict
awake
simmons
button
##je
ancestry
giving
intermittent
1957
workforce
##⊆
lead
bonding
robotics
token
netflix
tapes
pharmaceutical
cleavage
##idon
23rd
self
vibrating
softness
proved
runners
come
electorate
mora
votes
##va
suffix
bright
[unused518]
claims
##mah
##ille
iroquois
spicy
##gging
=
motorized
habit
##ps
attending
plata
uncertainty
orderly
costs
methodology
downtown
##rok
fallon
hodgson
ಾ
emperors
freshman
motto
##լ
fifth
walter
iraq
1891
powerful
cycling
##cture
southbound
nakamura
awaited
impending
##eur
texts
distracted
##ilo
markham
tornado
colts
implicit
[unused613]
bureaucracy
empathy
freestyle
freeman
plenty
forever
index
pause
huey
gospels
е
bit
##ios
1962
48th
##龍
symmetric
fourteen
donor
widowed
peugeot
appendix
zero
brave
weight
polished
##ave
oneself
##kou
workplace
##য
lucia
[unused402]
composing
chamberlain
flawed
##qual
sectors
parma
depicts
difficulties
declaration
gatherings
supermarket
eroded
1738
contact
春
##צ
meter
##sman
##clusive
fists
grams
billboard
medallist
mrs
omitted
bears
ம
smells
08
##vern
##lce
break
treat
banging
##evsky
##oki
sabah
##oun
builders
##dge
‡
drought
disappointing
rang
declined
dorsal
##j
camden
henri
concentration
##eke
invitation
hears
attribute
sw
proctor
candace
maris
proficiency
belly
escape
jennings
baby
##阿
burma
corporal
feature
manner
trailers
##ggy
ferrara
kicked
##enity
wrenched
sealed
stifled
kristin
##ᴰ
presented
1918
similarity
basics
vain
racer
soft
##lass
paris
partnering
knee
hilton
##レ
octopus
[unused390]
1840
bowls
themes
whose
##金
opus
proposal
nate
slaughter
##hes
dispute
flourished
70s
horn
##bach
##watch
enrique
##]
24
accolades
shortest
duties
rags
paxton
summarized
в
5000
##vn
guerrero
archaeologists
motel
solid
limit
spent
provider
atop
citizen
##war
##feit
loosely
announce
##umatic
triggering
transactions
ants
##plin
cheekbones
##志
inflammatory
##pkins
choirs
traversed
ultimatum
##shire
[unused591]
painfully
exercises
##sle
##chy
combustion
dietrich
slender
goin
emblem
sleepy
skyline
scripts
rapper
shards
##ffled
[unused776]
##lies
##lowe
potomac
##puri
professors
vitamin
##hay
bottom
##folding
osborne
converts
##rangle
##ski
marine
violate
borne
atrium
breath
visitor
soluble
arranging
developments
her
[unused280]
chariot
##quist
rival
kiev
##rium
follower
accomplished
[unused513]
subjects
reinforcement
nearest
offspring
gallo
needing
[unused607]
weasel
weekly
##bino
symmetry
learners
breakdown
##scan
soda
rumbling
##ute
rodriguez
function
idea
##tic
hai
facilities
putin
stil
kaufman
clifford
##ung
490
dawson
facilitates
157
renovated
secrets
cheated
nervous
1695
च
disgusted
galactic
diner
rubs
proposed
weston
equator
##aling
[unused174]
##pper
tobago
promised
##head
giant
royalties
afl
lesser
pinto
##cule
175
[unused562]
question
performs
##iche
guitarist
fisherman
turn
slamming
congregations
cheat
earned
unnoticed
gem
##0
##xide
precisely
blanca
wasn
remotely
andrews
fremont
chili
asiatic
##タ
##yra
signature
load
有
mackenzie
sts
soloists
sharks
nationally
advocate
swaying
##ador
taxation
##li
belfast
contested
sperm
excitedly
##dome
boroughs
beverley
campbell
##iano
љ
##relli
maximum
opposition
kingdoms
suspicious
152
malaya
fordham
##kali
##skin
node
signing
め
inserted
got
##თ
978
sober
##isch
carving
inheritance
healthy
satire
##sberg
desktop
recorded
cramped
youth
##uter
defining
##ley
monitoring
kendra
分
bases
frowns
including
manned
judicial
rose
##kot
##ttle
[unused148]
[unused374]
motorsport
circle
marry
tightened
standardized
diversified
aspiring
kota
##忠
gases
alba
knows
connect
1550
##nea
deviation
rand
##ny
##エ
mosque
##cut
ripe
future
porto
palazzo
clad
docked
##space
##et
sinatra
fae
elevator
latter
band
leger
disappointment
chancel
illustrate
reassured
cousin
227
gathering
luxurious
untouched
tito
alyssa
leak
##jali
organisms
kyiv
corrections
cards
##vot
tomas
##cht
russia
constable
goodwin
kassel
substitutes
subscription
##iko
##ears
ラ
habsburg
fear
patrice
##yde
19th
##rdo
##ptive
meters
##manship
seekers
childhood
bolivian
watch
ahl
11
##ٹ
##uin
spending
arson
legislatures
lucy
falls
[unused237]
cuff
faces
uncomfortable
manufactured
vancouver
persistent
mathematics
##60
gaped
136
##ence
eerie
ッ
public
philharmonic
progressing
buy
scarlet
##win
[unused859]
experiences
328
albeit
expose
prank
##swell
##भ
adrenaline
classmate
colourful
へ
ƒ
rough
electricity
everybody
##outs
comparable
##rth
##gno
[unused93]
unfit
[unused978]
gaining
celine
spies
cool
penguins
sonora
headed
armed
metallic
ligament
sighed
seized
[unused525]
potsdam
manufacturing
utah
motive
brady
sue
staten
dario
vaccines
2010
chimneys
##san
##এ
brandt
baptist
##ido
taboo
হ
[unused616]
complications
[unused643]
grammar
##政
majesty
provision
ambushed
monitors
grain
crimea
differs
aunt
toes
##ator
legislators
arrogant
aerodrome
##version
##clops
##kk
उ
differently
mangrove
enlightenment
stimuli
philippine
voluntarily
lane
wicked
##tadt
randolph
problematic
westminster
##vos
metadata
threat
wrapped
bull
1750
club
dog
formats
##pus
##版
wishing
##date
##ull
##strom
も
patches
excerpt
thereof
deliver
door
1824
metre
counter
leagues
[unused444]
utility
researchers
##burg
tuberculosis
278
footprints
prejudice
upward
rosary
ferguson
wah
costello
ked
hovered
cocktail
shit
icon
abigail
accents
##phs
##ᴵ
##ibly
motor
suggest
toy
gal
snake
influential
[unused466]
nope
##ミ
##brate
life
voice
##ろ
arguments
##rians
defective
bernard
[unused33]
blows
whistling
emir
site
grimaced
gdp
[unused673]
ras
elmer
trunk
dorothy
lordship
famous
hence
[unused734]
hispanic
1861
letters
armagh
thy
##lateral
chart
ego
accountant
salzburg
attendance
cube
marianne
##mber
coveted
perhaps
models
127
gillespie
serene
transylvania
kyushu
discharged
paralysis
forward
vest
idiots
days
##lia
cow
specifications
yu
nme
sure
twisting
##pol
scotia
fold
haunted
flowed
panted
##wear
asturias
detailed
nellie
##nsky
signaling
parrot
fee
knife
##dun
owed
aces
##color
bottle
pakistan
roth
unexpectedly
analyst
griffith
sparkling
oder
##vian
vanilla
shooting
resembled
##ɾ
expanded
##lves
##ก
##owe
gel
##र
carmel
appointed
helping
sang
giles
refusing
catering
mimi
decker
##mind
wonder
reporting
encore
solicitor
amused
kitchen
##tti
wines
1881
lucky
mo
underwear
elector
blanchard
marina
potato
contrary
wilfred
billings
consisted
radiation
women
observatory
garland
centenary
arroyo
substantially
networking
cambodian
skylar
hull
considers
tai
devotion
musa
ม
flees
##rring
white
licence
##城
protege
runs
supermarkets
eli
dowager
##rre
angelina
craters
crushing
reverse
[unused395]
groin
##ibar
locus
albrecht
revealing
chess
##rah
agnes
harrow
ian
crumpled
fulfill
##tens
vhf
canine
reg
civilians
##gas
newscast
##ホ
##yal
##ies
dried
taiwanese
stainless
##lord
##on
nana
##eley
[unused821]
oilers
[unused563]
520
[unused711]
projected
natal
archaeologist
##iface
lifetime
ralph
bollywood
##ieg
fierce
surpassed
marred
evident
##tar
continually
continued
immigration
anonymous
danes
maximilian
##家
blindness
endowed
havre
9th
offended
\
uphold
suddenly
dunkirk
ferdinand
butte
##ant
indianapolis
##star
spartan
snakes
cora
makes
watford
ى
[unused888]
##mond
##lines
joey
module
assortment
conscience
terri
offensive
harvested
pausing
connecting
title
lateral
##cased
##প
mozart
magma
bosnian
≈
chestnut
haste
##ᵏ
##cision
guests
behaved
drug
[unused785]
an
1842
##rnet
tunes
[unused376]
mcdonnell
##rent
covert
championship
##古
[unused589]
argentina
levels
exploits
glory
##net
chicken
160
clare
1806
##mmon
cues
opponent
##movable
crusaders
never
##ya
where
adrian
##xed
1894
fray
郡
rendition
hermitage
##trics
formation
##waite
containment
[unused284]
will
166
nuremberg
##wley
dipping
[unused67]
optics
[unused113]
##light
aquitaine
proponent
##ont
##sation
breakers
##zumi
[unused440]
intensive
comforting
demolition
warren
fda
plastics
##fra
conventions
depend
merchants
pin
pakistani
guineas
gonzalez
household
feminist
frightening
sinister
inverness
##gren
climbs
filmmaking
130
井
sheltered
operated
assurance
allowed
##dad
##aia
##tee
promoters
glistening
penalty
##orous
arts
nominal
concessions
temporal
understands
[unused632]
unfamiliar
nave
abbot
pba
console
2000s
1954
concession
combine
ono
reliability
##dhi
midland
bodo
##թ
graphic
##hya
aisles
bk
##nology
suburbs
ending
punishments
##ese
apologize
carriers
prominently
stanford
quantity
convenient
incentives
##hdi
arrogance
##phile
vase
copy
1621
sleeps
source
arise
pupil
##itarian
protected
someplace
fore
##thes
olympian
active
shifting
recreation
ling
approached
aristotle
escorted
declaring
1620
teased
km
[unused361]
perpetrators
##ை
##vious
constabulary
fiddle
for
expelled
elias
parkway
##rice
strolled
tow
lisa
bruce
scrapped
##pad
##oping
##ს
##turn
[unused298]
goran
f
discovered
produce
numerous
sexual
disney
ding
1722
enigma
marriott
##მ
latest
widow
gupta
escalated
weaker
guthrie
inscriptions
sunny
##॥
##ˤ
jonas
paranormal
strength
beg
boss
##ging
##economic
paraguay
communications
customer
offense
yarmouth
camped
consolidate
##rchy
understanding
163
##sha
joking
account
alton
product
brush
killed
&
lindsey
gunners
curious
notices
male
fury
##oons
belt
unconscious
inverse
thunder
newfound
signed
peanuts
₎
rehab
rosewood
hiroshima
unified
##oulos
depicted
ripple
fog
autopsy
[unused780]
peabody
gentlemen
themselves
salesman
boxing
roofs
hercules
danish
sentiment
ا
[unused193]
ceramic
dolores
1828
madras
wander
d
provides
application
##yuan
dvds
terrestrial
exception
successor
bhp
discus
karnataka
patents
ي
##eb
playful
encounters
subgenus
hurts
##ede
magnolia
brisk
##gc
searing
¤
seventy
disguise
inches
##alla
insignia
solo
theater
considerable
##kato
piloted
started
hub
panda
italianate
journal
oxide
##к
infantry
##ส
hip
approach
##eto
chrome
ville
could
selling
peoples
ritter
absorption
jesuits
##я
dahl
flashes
records
rely
musicians
strung
unanimous
##phine
eating
soaked
##est
pathology
grimace
##発
grimes
heaving
marcel
##ages
procedure
printers
himalayas
bandages
rider
book
verde
threatens
jain
##lter
allocated
gaston
violations
peace
subfamily
guyana
##平
##=
mandatory
thug
aerospace
##56
baptised
volta
maguire
##ing
rescuing
candidacy
entitled
caves
downstairs
lesbian
screenings
academia
##vich
azores
broughton
109
jason
parker
su
র
differential
padre
enhancement
lunar
##ち
##ᅵ
landmark
##ocks
tissues
〈
desire
campo
waterfall
ʌ
merrill
neutrality
osman
##endra
consult
##ates
##listic
1978
mavericks
sway
outlook
worried
##`
flotilla
gravitational
##enay
cao
123
villagers
transit
م
mckenna
warn
honor
[unused483]
pulled
trade
1958
##ntation
##opped
##khan
##ᄉ
confusing
armenians
restrain
##rdy
terminate
fabrics
##enne
content
##rcle
progressed
⊗
salmon
jase
##ances
settlers
1999
handbook
interfered
convinced
##द
edmond
christmas
pitch
fictional
offering
forte
##mini
korean
##wife
minas
##pods
##hell
ban
hamlets
sui
##tori
cheeks
vargas
myspace
unsafe
gabriel
fix
molten
needle
viewpoint
allowing
trading
1888
patrol
wives
barker
waltz
organizers
##tica
plant
creations
pegasus
naturalized
goldman
pulp
onslaught
repeatedly
remembering
rejected
democratic
lumpur
bertrand
leningrad
externally
##ening
[unused110]
dr
austrian
launches
kenneth
toulouse
chefs
##won
allegiance
hairy
##emann
mgm
isolation
harold
docks
##finder
ballad
certain
twenty20
loyalists
bubba
##itate
buffet
doi
admiring
mornings
peaked
petition
turtle
ろ
symbols
rutgers
millennia
technically
##oni
##imo
reunite
line
##escu
poultry
##ieving
introducing
condom
head
—
heartbreak
obstacle
coma
likened
silenced
analogue
territories
亻
##fahan
onwards
##ᆫ
##agi
industry
[unused451]
transcript
nathan
biking
operative
repression
cheering
##ي
irish
rani
mounts
70th
囗
helmut
hatfield
particular
derek
stays
revelations
excelled
##foot
chiefly
suffolk
##ight
watching
pressing
emilio
##nad
ud
cameron
axe
farmers
fifty
boulevard
atoll
##pf
##unes
strategic
moments
millions
facts
duncan
fastest
##tya
ended
thwarted
##otho
system
erect
cruelty
279
condor
meets
##uda
##bery
forbidden
##bro
shawn
shell
viper
##tom
500
missy
showtime
finch
##7th
##national
techniques
##ड
kaplan
kate
##une
pamphlets
performance
memories
glamour
lucan
##lved
we
invented
dominance
vox
awaiting
suggestion
lovers
katy
…
[unused292]
292
[unused555]
##fi
gum
restart
lister
humanoid
##ayo
least
mess
burnley
pleading
kata
ⁱ
cervical
##hul
##oria
spark
chaplin
ch
##ying
ringing
malcolm
##lica
agriculture
prosecution
emanuel
loyalist
torch
attends
oak
hugely
casket
armory
wr
##idia
futuristic
christine
angry
clarissa
geoff
hiroshi
remainder
tennis
日
unitarian
ு
mechanics
convincing
circuit
272
##rval
dependence
superfamily
ज
peeking
services
job
animals
##piece
eliot
contained
1874
bunch
apparatus
##acy
spaghetti
shale
atmospheric
307
##ი
cynical
jade
hilbert
conflicting
closer
remind
sd
bags
bt
“
##e
fit
##ske
option
puppet
mills
johanna
த
interceptions
##comb
justin
watched
splash
archdiocese
[unused861]
##kla
burned
hydraulic
town
font
klan
isbn
[unused464]
տ
starting
的
quality
reminder
greeting
adversary
vanishing
touchdown
johor
steel
teaching
patent
##erian
[unused568]
##miya
##xi
prelude
purse
libertadores
videos
yale
antilles
symbolic
harrison
hold
°f
wishes
letterman
apps
kilometre
##offs
##nb
##some
implemented
extinction
pandora
eyeing
[unused251]
persona
scattered
ₙ
distinguishing
marches
telenovela
ant
simulation
inference
[unused969]
bad
ி
petals
sox
knesset
##vil
prescott
blackberry
1930s
installment
roses
##borough
replaces
irrelevant
ghetto
revolutions
##llin
ratified
##nction
sticking
scrambling
patient
farrell
wed
##gis
oppression
glacier
relic
hiring
nagar
##nium
northumberland
bahamas
##33
lasers
roach
basin
graduate
generates
sacred
##bant
regarding
yes
mclaren
suffered
sebastian
pronunciation
skyla
cambrian
tchaikovsky
##ngo
jefferson
cheerfully
⁺
##lk
bracelet
თ
published
##rage
overlooking
##hed
##carriage
carrot
##thorpe
communities
clock
##oper
old
deadline
##tern
protections
monsters
##tted
timer
assumes
leisure
reactor
portage
varsity
performers
##agawa
ensembles
buffalo
##ys
tallest
monitor
##gon
demonstrate
aging
eastbound
policies
snapping
inflated
stiffly
deafening
[unused939]
parameters
耳
##esses
serves
##ट
palermo
ε
antonia
canons
jimmie
』
##the
digit
knuckles
##lithic
##f
macarthur
din
##weight
crossed
[unused49]
crest
ciudad
guidance
expresses
cl
activate
substitute
elvis
schleswig
brace
##語
storylines
##fully
[unused964]
##ological
beck
aubrey
##lous
##igo
targeted
identical
##bt
grading
1879
rs
ware
fuse
##mack
##efe
permitted
##onal
busted
fir
denies
iaaf
##ft
reluctant
barrels
foe
possession
asset
staple
##евич
were
glimpse
tinted
nmi
tudor
##wash
##tai
damien
##rim
##vish
breaststroke
walled
maize
fantasies
threats
sato
issue
##sov
##joy
latch
vassal
howie
##く
madagascar
brett
boo
orchestrated
##↦
inversion
guarantees
##zog
reforming
##mas
rosa
axial
##tang
##oric
cavern
amman
variants
geometric
sabres
trigger
lance
gubernatorial
lakes
confinement
hiatus
stung
##rse
servicing
periodically
password
forested
falling
##ov
esa
##gnan
exploitation
rios
##good
willoughby
ₓ
sb
##irus
lawyer
nk
ს
cockpit
flint
beetle
drums
1789
##ff
seize
##yi
314
renault
ා
danced
devastating
cultures
##illo
kan
athens
ח
[unused858]
hydra
gaping
cringed
angle
##vao
designations
immigrant
spinning
costumes
cara
abundance
obligations
syntax
stew
য
folly
lodging
shove
sorry
grille
⁷
kennedy
##aan
charts
andhra
childish
able
shoots
arches
outcomes
bailey
waking
engraver
##amps
caused
##州
hague
hiding
rapids
##ض
retailers
logged
[unused232]
orphan
riaa
[unused253]
wiring
cried
1729
##ass
##ini
constituted
correctional
inhibitors
10th
hauling
spp
reprise
##ত
promises
sitting
recruiting
polite
ripping
nobleman
fucked
##ˢ
sexuality
monique
1870s
##berg
indoors
liga
##thermal
susanna
qualifier
bows
pedestrian
440
daniel
bulldogs
journalists
ghosts
reaches
broadcasting
insurgency
flared
symposium
harding
cheaper
she
reed
compared
##cles
kept
twitch
agree
narrated
##tl
285
radicals
##osi
almighty
effort
convicts
anwar
##lor
sidewalks
##das
successively
lucien
barry
mere
##rber
reported
celebrating
flesh
rediscovered
purpose
meridian
jd
##'
interrogation
manly
work
deprived
[unused940]
##ase
armenia
coined
##iable
outburst
shared
bastards
conscious
coil
reduce
fans
##ᄎ
joshua
lux
hoc
knicks
##ine
##mis
buzzed
knowles
wardrobe
always
##cco
##wine
archived
##child
blast
add
defendants
granddaughter
##sul
bjp
tremor
ref
tractor
raphael
supporting
pitched
##md
##ruck
1964
samoa
regis
brewing
puget
appointment
priesthood
##sham
132
draining
##eth
things
艹
australian
graduated
ink
wei
##name
44th
pissed
josiah
study
macmillan
somme
wheel
##vili
joint
gambling
mortar
amazement
astros
[unused759]
patterned
ford
start
ambitious
##ische
furiously
հ
1792
forks
kaladin
##aris
##uen
harmed
buena
س
genoa
trumpet
brigade
classics
badly
awesome
los
siberia
人
attacker
empire
garfield
circling
##lab
sometime
##not
bengals
##gley
##sight
##ddled
tipped
memorabilia
happening
bow
worlds
det
flop
improvements
##rano
clawed
tangent
combination
111
leighton
##л
victoria
comment
showcases
drag
devised
striped
walks
darren
convened
shang
00
confederate
artwork
association
physicist
anand
howard
usage
diagnosed
evolution
coffin
fleet
##aged
cue
པ
grammy
quartz
shelton
revolutionaries
distrust
##runner
##ber
sarajevo
##bourg
জ
##ett
cyclist
accomplishment
basha
spanish
cattle
necks
##bly
nucleus
scrolling
dun
taxis
marx
commander
corvette
gideon
##kon
buick
ง
innsbruck
greenberg
composed
ya
##flower
erie
components
forbid
control
ˈ
visuals
##mberg
natives
##ze
steals
criticised
204
lebanon
gunpowder
relates
syllables
cooked
ornate
1626
##nce
sadly
malicious
at
focuses
tucson
factors
undergo
software
harm
partnership
rams
judy
noticeable
##acing
##uy
stroking
voltage
punches
##rien
rican
rattled
jurassic
goldsmith
##smo
november
pop
62
bounty
guest
traces
pd
や
34th
courtroom
overlapping
[unused874]
richer
##at
attendant
nighttime
##ப
cycles
instinct
muscular
emotionally
shriek
nairobi
vision
h₂o
##幸
##bei
blaze
increases
dance
differentiation
attache
prayers
trolley
pipe
website
insisting
bradshaw
##pee
146
diseases
dev
##50
tossed
idiot
shuddered
##any
legislator
investigated
neurological
finn
time
##ս
priority
##aran
marketing
highlighting
clips
parted
differ
290
##rled
neo
melville
stadium
stands
lyricist
charitable
##tage
bang
nagasaki
##gic
poster
gotham
champs
olaf
fu
peat
discussions
il
##yr
ninja
pol
[unused724]
policy
purchase
mate
##⁻
[CLS]
professions
psychologist
ท
เ
##chaft
275
##आ
parisian
sterile
vomiting
indirect
reapers
missiles
##emon
ʷ
require
ٹ
compressed
involves
##itating
##lad
whole
posted
343
edison
katrina
metals
cheerful
chevalier
islands
##›
マ
greens
heinrich
graph
tammy
pyrenees
connolly
appearances
ua
##pur
##ain
##ality
referenced
owes
haggard
blouse
##ead
57
misery
map
##tated
early
sar
stupidity
貴
knoxville
anatolia
expedition
holland
47th
##icia
##rte
guerra
1989
sword
nun
products
##ergy
configured
newark
walk
##zam
##5
purchases
##gni
distract
fairly
1872
fees
tangled
regions
bsc
forehead
ह
slovenian
##不
slade
博
targets
##zine
salman
histories
planning
scoring
amor
##umen
grotesque
ュ
arid
##psis
winged
displays
launch
doctorate
horst
trim
conserved
steaming
sociologist
surrounded
##aceous
happened
dissolved
##lard
minnesota
martyr
twilight
1773
saline
surprised
##uk
jerking
chapter
##ows
##oh
hms
typing
breathed
afc
jamal
327
##nai
surprise
tasted
27
blend
surplus
##rm
##dre
wrexham
##nsen
[unused447]
bag
##bbling
bankrupt
qualifications
regular
specialised
73
forgiveness
perceive
variously
trusting
permits
##ag
lowe
levi
consensus
balkan
murders
base
carries
ス
assault
##press
legs
ས
lava
poker
topical
varying
befriended
savior
confirming
commons
##par
##sd
##nni
currency
balthazar
com
plaque
reconstruction
freeing
castile
pain
theo
plymouth
herzegovina
systematic
##tty
open
gifts
lt
##lham
rack
76
##ن
##using
##org
##hine
obsession
241
skye
fencing
assisted
д
jewels
skaters
documentary
distinction
##sler
astronaut
criteria
frey
##‖
editorial
hi
∞
ea
basins
arc
triangle
sunni
145
##∆
##om
colombo
dominion
##^
sax
jaws
##ilis
happy
breton
adjustable
[unused269]
middleton
##isson
undoubtedly
garcia
hp
[unused266]
##ym
juarez
##gration
drive
hide
[unused34]
##bel
lobster
goa
2nd
##igh
surveying
unwanted
delhi
ic
unbeaten
basel
segregation
stakes
##maker
tibet
ginger
airlift
build
practical
##dou
|
barney
sin
夫
##仮
pr
chicago
##erie
##”
hop
grinding
##dating
slab
conductor
##haus
facade
allocation
##apa
regaining
balloon
confronted
preliminary
warwick
howell
papacy
wee
gingerly
##ica
gundam
iconic
agents
##fl
envy
hulk
flipped
rothschild
joachim
##ulates
bowman
##anda
##wave
staples
becca
##quest
natasha
##cm
elders
陳
debuts
##gra
doyle
melodic
rot
billion
##idi
##信
abraham
##uming
crossroads
ன
63
faithful
##sai
patriotic
specially
emeritus
hubbard
##llan
rigorous
nw
phylogenetic
242
courageous
sweatshirt
vertically
##virus
##lization
suggesting
##vic
greasy
replication
##broken
berman
ramsey
columbia
counterattack
milwaukee
mammal
herbert
refugees
chaotic
robson
##hima
##示
judges
politician
##ever
##iya
hoffmann
415
hope
avila
harsh
##dd
##aru
panthers
##nco
sends
tones
shaun
bloody
supporters
convert
partnerships
##『
blanket
contexts
##zzled
world
exhibited
lifting
traveller
tyres
bey
##edance
maximus
1850s
wandering
[unused603]
##ators
yan
##din
scares
candidates
distances
discomfort
volatile
outnumbered
bunk
##quette
##sta
advocating
durable
[unused21]
intelligent
fitted
[unused120]
pdf
villains
##bola
stats
movies
baird
parenting
quickly
##ان
orbital
friars
illumination
devout
wi
[unused158]
sensory
expected
exhibits
[unused479]
santiago
warily
miserable
##tland
mysteriously
stocks
[unused497]
swear
everyday
possibly
serial
memo
##brush
##rag
##itive
injury
johannesburg
cot
coincidence
flex
nz
bleed
##uram
warmly
##elle
##cek
butler
yards
miracles
##ndo
##ental
[unused107]
hugh
drummer
accidental
inherit
deadly
during
derivative
valve
[unused203]
renaissance
kris
ike
orthodoxy
dilemma
reality
crews
solutions
instruments
168
[unused286]
に
spans
##چ
[unused339]
outrageous
ieee
pickering
teenagers
ordering
posts
advisors
feel
##ution
##he
gregor
connell
skirts
battleships
floors
care
austen
rests
ظ
culminating
revoked
agrees
[unused324]
ˣ
verse
sliding
engined
fiber
medals
hectares
1760
##iam
huffington
undefeated
paws
issued
dax
ᅵ
##orio
wish
fringe
vet
author
sparse
bautista
fundamentally
fraternity
afterward
franchises
islander
germain
skipped
canadiens
humidity
fill
knees
relationship
##view
investors
booking
##hoff
##ю
clark
archie
christian
passages
brent
larry
shivering
biased
##ghi
##і
missing
roman
[unused418]
##te
1664
boulder
bourbon
##puram
##ク
tabitha
dire
totally
##р
[unused976]
watt
writers
श
shocked
storyline
prevalent
1961
militias
intentionally
##ako
camera
sunshine
auburn
automobiles
played
##bu
260
##phic
pentagon
##х
interventions
##ized
hybrid
everett
confrontation
##kota
[unused297]
vu
outset
integration
##bers
##rona
kali
tugs
##〈
##山
##ardo
269
##後
fein
westward
withdrew
leads
sanctions
petite
drenched
147
cricket
co₂
##fires
##tangled
evaluate
mediated
condo
lambert
##isches
bipolar
[unused235]
height
liberals
sob
twenty
germany
apology
bus
receptionist
##tling
##hg
pune
shield
##忄
##vocation
##ova
whitehall
thighs
producing
involvement
sensors
eighty
believer
eileen
sinking
sloping
∈
absence
1855
nightstand
firearms
york
caution
[unused310]
clarke
herb
sewer
##ic
navarre
tumbling
##horn
paved
walnut
##ific
sophisticated
##mund
[unused2]
suit
一
1914
[unused258]
certified
ke
castillo
##mot
edward
reigned
scrubbed
lifeboat
[unused41]
country
ordination
endure
loving
rotting
##mism
incorporating
氏
engagement
rees
understand
science
##ore
colour
hurricanes
disturbed
義
trapped
scheduled
##ahu
malls
ipa
whale
##tist
doin
##giving
unaware
solidarity
##vas
##sible
romney
parents
broadcasts
##bba
##cki
nehru
armada
880
moscow
snacks
shot
[unused154]
eat
##elt
美
flash
facial
withdrawing
grim
gov
liv
##bbly
calls
##》
assets
hardness
hove
##gia
obey
keeps
mandir
abc
##₈
##rner
jai
suffer
ngos
##red
##hom
bodyguards
susan
definitions
##screen
columbus
katz
drones
retaining
wheeled
ת
cho
laser
1780
##ete
breast
neal
∘
stephanie
##isi
camilla
neuroscience
vinnie
pits
immersed
foyer
##ae
covers
##ester
vic
invading
youtube
transfers
odin
swirling
daughters
despite
##antly
##ツ
constructing
##chin
shady
zebra
[unused115]
武
parade
marcelo
cares
slice
toledo
##lle
commentaries
##cus
subsistence
ravens
hugging
partition
blossom
##iver
support
bikini
final
breakout
worcester
bro
bedside
anaheim
rc
fishing
glittering
ج
recited
##kei
calculating
ん
feedback
golfer
ago
respectful
barbarians
[unused315]
1840s
considered
explained
accommodated
seeing
slash
##aha
##gus
adjustments
mata
await
jaw
last
##yd
knocking
herr
veterinary
shah
sussex
rosario
##yp
interceptor
vh1
##uous
##ා
informant
##tees
##ra
[unused141]
autonomy
[unused837]
petersburg
##holm
##火
tens
hen
##ɲ
swimming
generous
hints
knighted
##iii
deposition
howe
serge
hue
view
due
condoms
alive
keane
##pled
monkey
[unused185]
hamid
##iously
tire
yacht
prakash
internet
chatting
purchasing
##region
fixtures
[unused955]
was
studied
##tery
ₕ
taxi
##ddle
sparkle
##can
logistical
kimball
instance
commented
fracture
feast
hawk
hoping
albania
##oire
疒
apparel
flicker
whimper
##广
passionate
overly
##nsor
incorporated
grafton
mud
void
182
departure
loomed
eps
croydon
tnt
750
aware
kelvin
pl
engine
##pm
[unused176]
meant
##als
hell
preserving
abbott
frowned
greeted
flour
##dates
woven
む
sourced
closet
oricon
16th
botany
##skaya
fancy
educator
cleaned
halle
context
1911
[unused101]
##ert
edged
operation
plea
##ᵃ
singing
quarters
##turing
versailles
robbers
ellie
zones
gaga
gi
might
stu
spiked
##vus
honoring
##lkirk
firm
selena
##rgen
##ʻ
precipitation
low
contracted
converse
twinned
口
ka
yours
committee
oliver
fulton
wrestlers
fest
##rama
barre
hallway
japan
massive
##世
evening
aftermath
instability
screams
groaning
vaughan
transmitters
indefinitely
shaggy
neighbourhood
blackish
bookstore
unsigned
ipod
emotions
rbis
rica
wide
bolivar
fern
regulators
smackdown
juliana
##caster
emergence
lads
prayer
operators
currently
ᄉ
vincent
##lining
souza
covering
##rry
salty
afro
evaluating
##ᅯ
includes
##lal
algae
reflected
[unused557]
comedies
bessie
catholics
armstrong
##gold
curtiss
staring
rico
florence
##hos
entertainer
[unused439]
den
##are
binary
addresses
cambridgeshire
weighed
reflective
zhu
assist
mercer
caledonia
orchards
viewed
##bia
ʃ
barrio
orbits
gallon
donation
##erik
inquisition
hon
preparations
shortened
[unused179]
iceland
[unused151]
person
##static
shrimp
[unused342]
regional
anderson
grover
divers
si
ballet
plausible
variable
chrysler
##dled
sync
denise
rann
boeing
ʾ
explaining
guarantee
bari
##wehr
##iro
##ivo
panorama
##onte
у
speeches
assuming
fungi
glazed
1662
stubble
hung
##osa
[unused416]
beyond
kiss
##rned
cage
ˢ
personalities
##ч
medication
moan
##side
wilhelm
estranged
allows
knockout
##bha
nuclei
hidalgo
winthrop
desired
gear
harlan
mesopotamia
protect
diverted
destroyer
incline
addressing
assimilation
globalization
downloads
boot
##acious
##and
susie
indeed
##ocation
grab
lighthouse
amusing
besides
gives
valentine
abolition
1634
temperament
sparta
npr
comparisons
mythological
chao
purported
everyone
tune
illusion
farmer
candle
##ffe
比
luggage
sir
composition
swallowing
routledge
santo
excluding
legislation
##boarding
maharaja
[unused202]
van
hunters
anchored
navigate
malabar
##xley
basalt
admission
directions
明
giorgio
confess
judging
winfield
spearheaded
frowning
quoted
cuisine
awards
saga
flashing
wolfe
##ا
comprising
affairs
afb
spirited
orbit
scarf
clearly
sand
ᵘ
neighbouring
cardiff
denim
[unused372]
beaches
grips
amore
tenth
dupont
norwegian
##ero
[unused853]
patronage
sho
education
[unused91]
yet
ted
##alia
paddington
yvonne
daggers
##omo
arteries
spanning
upon
upstream
##rip
ᅡ
##ou
nina
cardboard
[unused0]
1685
notable
##arding
eireann
drop
landlord
xii
##sop
##ay
communist
lexie
treating
glendale
stacks
robinson
##llar
transition
##bone
版
bilbao
fascination
allotted
holocaust
ᴬ
trainers
##nzo
gothenburg
brew
bingo
ransom
stone
reassure
nutrients
##ocene
dam
accession
portrayed
chasing
kung
trooper
##த
delta
@
##print
raiding
newport
primera
##tur
##mus
beds
aren
gomez
1641
fare
oleg
[unused798]
isil
##ₙ
lagos
sheen
playhouse
unclear
rib
easiest
utilized
[unused47]
liked
[unused810]
volumes
[unused117]
##eric
##nessy
[unused455]
farm
des
##nist
generating
causes
scientology
senate
hearings
estadio
recognise
ornaments
##fles
##dlow
regulars
##jin
[unused989]
prepares
backbone
エ
quake
manuel
leach
confines
punished
[unused990]
electoral
defunct
unfolded
postdoctoral
[unused705]
acute
confesses
respiratory
##pro
legitimacy
murmurs
binoculars
seventeenth
creator
licensed
whereby
##uck
analog
placed
driveway
discussed
makers
737
method
burials
leasing
buys
bids
bilateral
yukon
booths
applicants
266
hades
##see
##rt
steve
females
245
1747
name
##mbit
string
wouldn
52
admiral
occasions
spreading
pockets
brought
methyl
rubbish
unanimously
wartime
rune
a2
[unused77]
supplied
posthumous
[unused510]
chaired
aiding
fooled
fusion
##eng
brands
proprietary
rotor
vol
entrance
hebrew
preseason
rudolf
messed
canteen
chief
ɡ
tremble
lagoon
towed
##oteric
handwriting
stitch
electrically
##se
skies
textiles
##bles
warmed
[unused445]
##ch
engravings
farther
delaney
##hua
##kur
trash
decrees
cipher
rabbi
restructuring
presumed
lia
##ard
register
bitter
ubiquitous
pilgrimage
##duced
##itis
clearer
##ط
klaus
bathrooms
simulcast
marker
internationale
अ
##point
boundary
[unused574]
arithmetic
##ms
sphere
councillor
aw
gerald
phenomena
scroll
appropriately
colleges
##ioned
chocolate
haunt
##侍
##ʌ
rendering
liberated
##athy
continues
##二
##raf
labour
priscilla
ed
blinding
astro
bringing
##grant
)
newfoundland
traced
helmet
##‚
appeal
[unused758]
exhibitions
thierry
werner
##⁴
defeated
333
talented
temperance
##cona
##″
1943
##dder
wesleyan
thirteenth
speed
defendant
seneca
1732
patted
pointer
rotation
taunting
##い
##前
networks
hans
connection
hiss
northamptonshire
images
egyptian
##陽
treason
lincolnshire
installations
ancestral
whipped
thrown
theatrical
ه
##ח
landfall
##oj
dakota
abandon
gin
##⁵
##道
inclination
[unused612]
floods
craven
fidelity
##owing
##hat
hindu
wickets
infants
[unused128]
ignoring
236
front
begs
et
catching
lang
adopt
چ
##erty
designate
##ault
lublin
grassy
star
##lz
assigned
crumbling
bestowed
##ulu
メ
awarded
seats
darrell
grandchildren
despised
##nath
story
beats
##lidae
corporations
organising
##logist
lucifer
[unused230]
flowing
tara
##sir
ik
[unused570]
[unused448]
##aba
hugged
##sier
liechtenstein
##∂
teamed
charlton
cunningham
hurry
##nna
「
[unused467]
jewish
400
adherents
artifacts
blonde
##peed
giants
rotating
zac
bile
ferocious
corsica
pod
ely
##zai
##amp
cyrillic
alexandre
##com
limb
prosecutors
newmarket
larsen
steamship
operates
janeiro
##宇
flaming
edit
512
creole
[PAD]
[unused587]
denominations
romanized
##und
ron
##lot
yard
seductive
frown
fowler
pam
raw
141
hindwings
celebrity
poisoned
cunning
dean
artificial
provided
##6th
##mour
##au
yo
sells
2020
coaster
quasi
##ricting
spectacular
bird
軍
##ek
[unused578]
cylinders
##vere
##ie
##urable
lower
closing
##mbe
##sonic
conceived
rebecca
##cted
ball
##amina
consisting
[unused353]
infrastructure
gamble
congestion
nunez
wooded
minh
##hyl
originates
stopping
##ம
populace
empowerment
##rgy
wally
##flight
royalist
##cured
1798
eruption
##lena
2018
derbyshire
##rran
[unused640]
submissions
freelance
finish
garry
iso
northwestern
eternity
rash
1887
##よ
ali
##garh
beside
happens
trapping
chichester
handball
wallace
volcano
timeline
[unused801]
105
brass
##lova
dew
hymns
births
[unused197]
twisted
triggers
##tius
quietly
##raße
noticing
assessed
refers
unemployment
ང
molecule
russian
shine
##rti
tours
leveled
80
128
modelling
lam
##lane
ice
strikers
highs
##oney
unofficially
♣
mathew
satisfy
reconnaissance
resemblance
kidnapped
corp
destinations
shea
prom
##xy
benito
sights
amounted
jon
extracts
latham
##¥
hesitate
areas
find
leading
kiara
outline
##leader
##kko
metacritic
##iah
local
yves
edinburgh
lot
##lock
ि
emerged
revolutionary
summers
glances
reacted
browser
recorder
eruptions
reviewed
上
sandals
...
##vara
glue
coli
nan
face
grasp
protectorate
eight
sabbath
renal
regeneration
flattened
##ख
##uttered
explicit
##cuit
michigan
knocks
laden
downloaded
##stra
laval
partner
prohibited
manny
fears
sirens
aeronautical
providers
wrestlemania
##ons
##making
getting
academic
drifted
##anov
cocoa
##∪
neglected
psalms
yourself
##rial
⁻
hail
##eld
panting
independents
##genesis
nasa
##thus
blessings
[unused638]
shaw
raoul
disastrous
##vy
eyebrows
kinds
recommendation
weighs
chattanooga
lanterns
psychiatric
永
##ne
##dier
kangaroo
sectional
nichols
[unused327]
reinstated
diva
[unused43]
conjecture
##tock
italy
jeans
sol
pondered
365
ottawa
hands
coating
moore
participants
fry
risen
##ired
[unused65]
##gl
bros
##riation
lawsuit
2004
clamped
奈
ambitions
##cans
therapeutic
illustrating
≡
bouquet
##diment
universities
##cks
jericho
[unused584]
priestess
mistake
illegal
crore
agencies
lamar
##pt
sudan
vicar
sonata
##名
stature
participant
##yck
steep
lowest
##rion
substantial
feb
proponents
[unused265]
[unused437]
clumsy
##recht
memphis
convection
jam
deter
burnham
hawaii
dell
telecast
kitten
[unused588]
chennai
##rud
##cao
##iating
precedence
liquidation
bonded
chimney
##paper
reece
bending
post
napkin
fisted
##ি
thom
embarrassed
ronald
fungus
revival
warehouse
volvo
##col
mercy
comet
evangelical
raleigh
ordeal
nerves
hillside
sharpe
##kling
lightly
surrey
siren
carleton
usaf
accelerating
soho
mala
corey
christina
[unused626]
[unused95]
yielding
acquisition
##mbo
422
##drich
video
##r
invite
herd
[unused104]
chickens
[unused81]
saxophone
footprint
urbana
emi
reaching
haul
blades
dice
子
consul
249
earning
excitement
kristina
##rus
administrators
glacial
occasion
189
##chester
papa
retained
bursts
eds
erika
upgrading
##hp
overlook
pinning
movement
dodd
robertson
unleashed
fashioned
collapsing
[unused876]
##ʊ
sugar
水
[unused576]
powerless
shelly
shouldn
##active
syn
lured
##you
insist
affectionately
provisions
⇌
empirical
task
battle
sewage
timmy
encounter
##writer
westphalia
dams
enclosure
li
##lib
friedrich
prototypes
kits
##saka
employing
steward
newell
##ས
legends
simeon
alongside
##ral
encoded
pigeons
huron
ferries
positioned
publication
sloppy
apex
amadeus
bran
##en
##pressive
##せ
1737
stronghold
##pine
aryan
israel
twice
tailed
shouts
donated
substance
##29
jan
т
##card
nothin
explanation
kepler
curve
butch
polka
[unused949]
##ppet
crawl
##cko
270
adolescence
⇄
##iom
[unused369]
marquess
hollywood
distinctly
essential
witnessed
blah
lend
stud
dragged
oblast
195
phonetic
[unused312]
##ier
thoughtful
##nca
population
##typic
senior
smash
onto
marcia
cardiovascular
##コ
nightmares
qb
exist
blankly
〉
testified
browns
palo
##ℝ
dyed
psychedelic
window
discrimination
kelley
##phate
unicorn
##dermott
melt
weeping
atari
ineffective
payroll
##ன
56
azerbaijani
cutting
##京
##basket
statutes
##nir
reclamation
[unused679]
starts
compressor
erratic
mountainous
swiped
wilson
akin
abbey
announcer
##oia
million
silvia
##hia
ث
戦
##90
knew
##tsky
chewed
idaho
dynamic
[unused246]
institutes
funky
armies
conversely
##morphism
zoo
dust
textual
montagu
franco
pearl
[unused631]
garnered
lavender
ahmad
sounded
forming
##plex
##bana
immaculate
##mart
clench
[unused400]
ideology
##tique
officials
tap
##ј
[unused751]
midi
##ioms
brief
alphabet
orbiting
constitutes
cracks
inexperienced
anna
bearer
[unused844]
relics
mad
neighbors
jake
##set
##ssel
##stellar
withstand
irresistible
feeling
demand
##mento
1997
##cultural
ル
##ג
77
playboy
##try
odisha
victim
embroidered
##powered
randy
calm
bavaria
##zar
regime
##hea
##ometric
accordingly
##oured
giggling
chosen
tempest
վ
##osh
17th
releasing
philanthropic
[unused820]
accountants
stripes
canucks
non
##ace
##nica
##lake
gigantic
inferno
belarus
cairo
linen
##rri
cooper
我
flows
rebirth
bayou
##フ
##jee
usb
hangul
marne
smoothed
inventory
jillian
escort
error
i
sr
securely
altered
kilometers
##cc
monaco
bas
fruits
gogh
mall
george
yank
gunshot
broadly
modernism
renumbered
##শ
##cia
ensign
disaster
cartridges
way
removing
##dden
##ango
strike
##que
dirty
hannibal
bewildered
eastman
consecration
enclave
textbook
oversight
haydn
rewarded
3
fails
speculated
##pped
1844
ripped
csa
bait
greenish
possibilities
1938
ნ
1623
commonplace
mock
philips
hawthorn
##ד
light
delicious
cooke
inadequate
britney
davis
kabul
paramilitary
troopers
##rga
malayalam
prima
residential
unnatural
survive
##ndt
observations
unexpected
##ryl
##anne
benefactor
[unused45]
lifted
fake
murdering
clarify
horns
focused
hopper
##oxide
accessibility
contender
##ites
⺩
durban
50
##ttal
providence
poetic
migrate
converted
signifies
##giri
progresses
mohamed
##ouin
##orro
contrasting
##da
exams
expects
##yar
ل
ᅥ
92
brandenburg
[unused713]
plagued
corrected
darker
frankenstein
secondary
fielding
enabling
bulletin
##charged
degraded
##tious
[unused328]
[unused766]
borneo
teacher
neill
ot
beige
march
beale
atlas
bounds
##raphic
ingredients
inched
debt
murmured
34
wesley
pool
cpu
fortunes
uzbekistan
vehicles
rave
##ingen
hurried
homeland
wednesday
##arians
##lei
[unused56]
##co
faint
##inton
phillies
liaison
rookie
ferry
container
eldest
homosexuality
oaxaca
believes
consort
mri
fe
educating
portuguese
##rf
flies
##gative
posterior
snowy
scanned
##ヘ
strides
doctrines
##idge
blue
ग
diminished
maid
31st
inspect
[unused371]
##ⁿ
##dai
monsoon
creeks
chick
1838
harcourt
##rite
presents
unmarried
cinematographer
##obe
preferring
composure
[unused204]
rotational
postponed
overshadowed
loire
illicit
boasts
##posed
makeup
##:
programmes
stance
older
amelia
gamma
##ray
prose
verbs
plum
侍
trajectory
simulated
carly
remark
[unused922]
syndication
##ai
franchise
lieutenant
[unused527]
logging
vessels
##iring
rude
ruiz
[unused394]
valuable
##vik
murmur
vanished
##zic
eclectic
pot
bois
carnage
homage
planets
eventual
##ude
##avi
cheating
mla
steele
##nu
foreigners
minimal
cremated
claws
##stituting
ru
##lessness
stuttgart
##stis
forster
!
researched
enzo
##ales
[unused211]
estimated
25
garbage
prologue
##car
hurdle
##45
bombings
cousins
ramon
nightly
mundo
heading
[unused887]
พ
room
honduras
expenditures
destroyers
steamboat
tempting
installing
##jal
sandstone
deserved
94
encompassing
##ping
houses
harry
[unused364]
##*
village
orient
་
aviator
householder
tied
coal
acquaintance
##dp
diaries
play
evaluation
asphalt
staffordshire
##uts
##fe
geneva
placement
nutrient
##eza
according
measurements
bain
10
ballroom
congressional
##tation
∪
page
automobile
walton
##ws
lizards
lever
friendly
undercover
##nitz
208
##er
ready
strip
##jack
mound
lattice
##girl
slated
##eit
rained
##ered
staffed
gavin
stares
baptism
##ய
##tate
hall
versa
making
yucatan
[
haji
##・
ᵏ
##cave
surname
attendants
##st
##ハ
reunited
appointments
！
realized
##arney
develop
rifle
640
intuitive
##eal
vendors
_
∆
romania
aroused
華
[unused958]
hunted
ravine
1807
hicks
jeopardy
offices
ashok
variability
baking
fined
fourier
pastor
ђ
popped
trace
circulation
beauty
ee
collaborated
seo
州
ო
functioned
rock
153
##rgos
tunisia
beirut
drip
[unused279]
transport
blooded
granny
##athic
utilizing
##ট
drainage
generations
north
rohan
ak
willow
renee
cheyenne
yearning
##tial
##cl
recounted
lough
towers
shame
online
generated
iowa
suez
##男
[unused48]
scholastic
convent
##rks
##gin
ג
eras
exchequer
♠
##bah
enveloped
muttered
described
technical
[unused793]
fumbled
nose
##亻
kill
restoration
ongoing
outlet
librarian
##eil
unearthed
penitentiary
stimulation
pulse
##gol
up
1870
causeway
##rra
horrific
wrath
福
cavalry
protocols
skimmed
##镇
[unused333]
disturb
/
##oso
socrates
##iard
warmer
ف
agitated
خ
##wa
when
inward
prominence
coherent
vulgar
orr
hoped
swords
##dro
stacy
##lka
compensate
andreas
minus
bart
visited
##ili
##メ
##zko
actual
ᵒ
coyote
loaned
[unused921]
visionary
二
launching
robot
神
kong
enabled
scientists
lunch
cyclic
rubin
wagons
##met
spaced
avalanche
##lmer
invest
gaddafi
rested
neue
##pina
##10
portable
strauss
1941
weakness
1804
[unused240]
211
purposely
confirmed
χ
catfish
advice
accessories
hardest
glucose
ecosystems
1779
regain
[unused845]
nonsense
##ος
rankings
niche
reasoned
blackwell
steamer
ₜ
##cing
findings
prostitute
##pathic
growls
fiance
kilkenny
bulldog
[unused139]
corruption
promenade
##sau
closes
漢
restricted
–
affected
##gam
richardson
##_
san
goodness
dear
wears
bafta
freshmen
alfredo
predictions
soils
cola
pia
shelter
stroked
township
reactive
##tangle
verified
morals
recognised
outlined
bordeaux
tolerant
microscopic
excursion
credited
recurring
sweeping
reorganized
chord
[unused775]
impoverished
nonfiction
##ᴮ
coupe
channels
department
helicopters
attractions
verity
223
newer
maxi
vikram
##cup
topics
##ย
cinderella
smashed
emerges
[unused436]
##sey
rainy
キ
herald
cnn
##pta
challenges
##ks
##rdial
方
##ud
audience
rooster
1853
amassed
patrolling
palestinian
vicinity
##written
narcotics
cart
replacing
tourists
vuelta
romero
[unused365]
maclean
dt
##ucci
entrepreneurs
curt
debate
##rist
23
commendation
dormitory
restore
tests
##gent
unhappy
##ility
disused
##rkin
swallow
hastily
analyzing
leith
proficient
showing
steven
1846
alarm
financially
heller
marched
painters
waste
screens
propagation
stared
cartoons
counsel
##fs
##υ
loses
abs
destroying
crates
turns
slight
rifles
snap
erin
cis
hilly
##ʳ
cast
attributed
underneath
kazakhstan
options
brennan
etat
##ignant
hilary
##cz
kilograms
populated
##atin
decca
identity
awe
geologist
beaver
nelly
[unused935]
swimmer
kun
vince
##jit
hobart
edgar
responding
appetite
priests
cakes
montenegro
cicero
hamish
nowhere
marie
[unused75]
padded
ʸ
aid
hurst
necessarily
explosion
pushed
whitaker
##lined
strikes
と
playable
insanity
camouflage
bea
equally
overdose
##rbin
##romatic
widen
ₑ
##voking
disciple
intro
alto
sneaking
werewolves
portrayal
cochrane
meat
##tched
arenas
##ten
[unused652]
ն
officers
resume
own
darius
出
inspiring
ए
probable
oldest
brushing
ideally
mistaken
##oder
sprinted
forts
rolling
1815
iqbal
##glass
parana
quarterback
shenzhen
##mates
46
charms
overseas
assaulted
eucalyptus
sect
ordinary
lowell
##izations
[unused765]
cans
1948
tiles
disappointed
1761
parramatta
permitting
296
psychotic
trois
bolts
ow
his
₆
##mable
sebastien
chesterfield
##た
lafayette
conferred
elsie
branch
posture
inspected
##ager
kim
[unused646]
pigs
okinawa
##م
ebook
1782
antiquities
##λ
inexpensive
libretto
attention
contempt
bombed
struggled
sheep
rescues
supervised
##eased
stops
atlantis
levine
revived
maps
保
blizzard
irregularities
stallion
fragmented
peacefully
likes
alberta
revision
plate
venues
##open
wilkes
nintendo
profitable
affirmative
´
otter
##aria
interdisciplinary
[unused890]
managing
twist
labs
intends
efficacy
101
input
##mist
jesse
watson
##ole
##dha
constructions
collided
##あ
1936
##rino
spying
bucks
bothered
surprises
##lid
vegetarian
wilmington
antoinette
southampton
putting
para
balfour
##-
##yria
tin
[unused282]
dos
##ating
needs
convey
##pati
pilasters
aggregation
couldn
restarted
##न
don
google
fledgling
delivers
builds
elevators
##ी
pitted
concepts
vaughn
travelled
colored
##baum
##aby
shrill
##ule
57th
mitochondrial
acceleration
##ŋ
##hur
manufacturers
elegant
morocco
useless
sherry
pacific
##hil
testify
##anger
plural
fiba
##cope
tee
driver
sudden
brooklyn
clockwise
productivity
nrhp
[unused854]
disease
affirmed
##take
packet
mania
member
natalie
psychologists
electromagnetic
supremacy
352
pipes
##gins
mclean
『
##ム
~
lowers
football
lausanne
115
debbie
paced
met
maldives
store
inspector
##dl
beaming
sheffield
bethlehem
ars
##filtration
instructed
wagner
##vision
candidate
transforming
rebuilding
examinations
##rase
wade
alloy
stemmed
##bine
killing
noctuidae
boredom
occupations
raion
##ல
##rel
comte
##hui
1624
##rso
mechanized
augustus
asserting
malibu
homestead
satin
ո
distributed
savings
heirs
##dman
##qu
lcd
1740
##昭
pilgrim
output
writings
plantation
bryan
calculation
##urgent
darling
nearing
lodged
tan
cdp
leap
ni
justified
dir
##wise
chihuahua
exchanges
montevideo
landscaping
marylebone
##す
1877
##eres
mei
##case
amos
sit
groundbreaking
programmers
sima
afraid
28
t
stairwell
##ն
##rz
redskins
hug
matching
coordinator
caught
martin
##高
princeton
thigh
definition
fascinating
1774
##aton
creek
arrange
##essed
unstable
maestro
recoil
clara
##，
##ии
ballots
degree
##ennial
swan
##lag
je
##rsk
rm
townships
##bal
turtles
ponytail
windows
replica
loosened
edwards
authorities
entrepreneur
rats
covered
briggs
purcell
kind
heavier
frigate
revealed
knitting
obtained
grants
##his
coordinates
rochdale
murderers
cut
sentinel
flags
##ulous
paddy
##ading
hammering
sonya
宮
domesday
##zza
rpg
alterations
tales
##rum
symbolism
presidential
##aver
##sant
##kawa
##vi
double
nat
¹⁄₂
##meric
slumped
handgun
##wang
frightened
simulations
##ය
ר
fair
信
striking
sailors
ל
reached
gangster
hypnotic
competitive
full
comfortable
lac
increasingly
beard
к
oldham
##sy
bananas
cia
[unused742]
shakes
buck
##hala
academies
##ɐ
promptly
##adia
##坂
choices
frequency
scorer
[unused307]
slightest
prefecture
nancy
shaky
390
bentley
tracker
vladimir
villiers
terry
darkest
traders
haute
demon
##eft
secretary
1927
bahrain
customs
##nched
rutherford
slides
##ision
sarcastic
granted
hike
##ظ
ರ
privileges
##uno
republicans
##bs
##ches
##16
##ա
heritage
##曲
##yne
cadiz
traditional
##tor
variation
give
##br
##lino
mcconnell
nantes
hirsch
##hole
cult
severn
bristol
ћ
tommy
1719
metres
##crest
etymology
stella
johns
fine
katharine
ringo
politics
intention
clusters
[SEP]
pregnancy
cured
名
comes
sessions
dead
ruby
compromise
1895
upgrade
detecting
leather
computer
pitching
##asse
serviced
##oon
contaminated
laude
travers
twitching
decimal
1857
fool
glow
史
soviets
witnessing
secured
jed
suspense
recalling
dung
81
cooking
amend
banda
##grade
harbour
xv
tightening
##akh
tumble
cy
aston
accused
thorough
rematch
distressed
holiness
turbine
##inger
slid
attacking
wichita
##lices
##を
##wick
charlotte
moths
managers
actor
russell
updated
toad
##uppe
↓
lip
accumulated
secretaries
critically
##zi
##phonic
governor
journalism
lived
fumble
novelty
##ech
get
playground
casts
inputs
sears
##jected
export
asserted
gettysburg
##aco
marian
tandem
improvement
tub
lobe
##tha
finale
##meo
muhammad
ब
selected
cumbria
saber
pic
158
downed
pun
leah
cuts
##owed
##д
submarines
tango
nanjing
seafood
articulated
expansion
goods
soundtrack
[unused522]
##ays
##ful
##ˈ
reading
##pies
fi
associate
program
starbucks
pennsylvania
relevant
tissue
##tas
flanked
competitors
species
resulting
##ei
anglia
hughes
internationally
coulter
melissa
cellar
sedimentary
ami
fuck
arrondissement
secrecy
contrast
rejecting
001
manuscripts
volume
ledge
merton
niagara
casualties
loading
##khar
interpretation
atv
entourage
brains
laundering
##ob
cochin
wylie
derives
soc
##на
clocks
flowering
epidemic
nude
cache
scene
intercourse
##ajan
##iate
napoleon
mansions
wellington
workings
[unused664]
discourage
quiet
##neil
divisional
enthusiast
raped
topological
cosmetics
growth
gallantry
walkover
restoring
##dhar
frontman
fullback
deep
##mac
[unused72]
##her
pudding
smartphone
hierarchy
hammersmith
reluctantly
##方
##holes
[unused530]
##mming
diane
[unused709]
nr
##aith
sources
##tric
[unused523]
motorcycles
cushion
peanut
dissatisfied
helps
fucking
huskies
synonym
##ᵍ
##berman
##uma
##nh
ں
temeraire
##ax
crept
[unused55]
’
abducted
quilt
irritated
algiers
690
##年
archives
embedded
[unused822]
overs
reliance
injected
µ
##gaon
sep
batman
midwest
aziz
liver
sergey
##ride
ᵥ
banned
##ntino
idols
stress
##iq
kochi
rwanda
vogue
moving
eyelids
[unused622]
cents
supervisory
zulu
[unused347]
evolving
directly
sausage
special
о
ins
##enbach
hapoel
homecoming
messing
end
aggregate
##₆
280
constitutional
philosophers
righteous
jelly
virtually
##25
gliding
cohen
samsung
[unused618]
outward
chronicles
anxiously
tor
demeanor
tighter
handled
kingston
lina
entity
eurovision
running
ᄒ
cello
burmese
kevin
notorious
thriving
dinah
172
collection
غ
##my
##tree
dynasty
ara
squinting
watches
rousseau
aimee
く
##gan
tormented
##ッ
##bow
##rb
ᄏ
chains
##escence
dex
damaging
##bbies
homemade
shortage
telescope
freddy
contents
hormones
##lita
particles
##men
##frame
[unused907]
eng
panel
##fen
massimo
adherence
⁄
specifies
cpi
parent
transformed
elk
##cchi
##taro
##民
grand
characterised
##liness
##scia
berkeley
chartered
[unused927]
receiving
##has
receive
israelis
flatly
##vac
##sp
cbc
##pre
seater
visual
lisbon
gulped
1839
⁰
shades
squares
ponds
particularly
alzheimer
pigment
splits
[unused145]
rebuilt
endemic
12
##bold
##sam
щ
tale
##kowski
crawford
##formed
coldly
drilled
19
colours
fabulous
##islaus
smashing
enclosed
tess
[unused686]
[unused136]
[unused321]
weapons
maneuvers
pontiac
##∩
##86
[unused259]
aerial
nests
blitz
45
##oue
kramer
subtle
##pheus
arsenic
annually
potent
##nio
##स
xiang
##leg
children
courses
arousal
frustrated
##dberg
booker
certainly
ukraine
challenging
prostate
blond
arias
admitted
[unused301]
[unused351]
seventh
[unused956]
uncles
##harat
nikolay
zoom
##kh
rally
vlad
##夫
welch
aj
explores
expect
commemoration
##isms
meredith
403
condemning
resolved
revenge
resign
delaying
crawled
alistair
pronouns
##tok
diffusion
glaciers
coughing
##crow
testimony
moreno
recognize
[unused123]
distorted
belgium
referring
engagements
supervise
##ian
sprang
##nne
indications
disks
本
mosquito
##rral
levant
dowry
##lth
pier
guernsey
axle
bin
[unused677]
##lux
mongols
radiant
patton
randomly
boardwalk
encompasses
illustrated
##ssar
springs
democrats
attack
andre
fires
diving
##ffer
interaction
mx
sliced
tanya
files
childbirth
##cter
##osity
##ト
andrew
##zoo
hilda
thirties
[unused422]
pendant
dod
lest
cfa
##⇌
cameo
ala
shortages
charismatic
lieu
xu
minors
outfielder
bahia
relinquished
[unused468]
tiny
rhetoric
sellers
consulted
describe
defences
they
##ffey
tastes
stemming
holdings
inactive
##iba
tombstone
##千
cullen
de
shire
##nais
cid
swift
imprisonment
concludes
spill
behave
##ssing
residents
##¶
##eka
gained
traded
bequeathed
##etta
doubling
peggy
other
useful
rugby
submit
[unused592]
ridges
feudal
yang
40th
nottinghamshire
[unused839]
phases
knox
beethoven
shankar
antoine
hog
deserts
avery
moderate
°
1841
[unused492]
binding
metric
pose
bonn
cadence
phil
staggering
resembling
##tad
##―
##ス
brightness
acres
bury
##quay
vicki
larger
swimmers
dwarfs
licensing
##wark
##永
slayer
335
##adan
nausea
lad
##oro
##hetic
pandit
##sworth
designed
pulling
halloween
dignity
##itation
complaints
remarried
1982
[unused609]
##n
dennis
deux
reassuring
れ
stationed
##rization
spilled
##lates
indy
##ச
##wd
edouard
##itha
98
packaging
resigned
masters
##tto
417
##ington
graffiti
39th
jonny
##zbek
saying
reader
sleek
redistribution
upbeat
became
mum
[unused596]
##ross
##pping
1892
wedding
elliptic
##▪
spaceship
1831
##dav
nh
discount
ads
ct
travels
siberian
clarified
##tao
northeastern
##な
american
taxes
##မ
##edge
##之
##व
##ᅩ
vibe
せ
¦
ョ
examined
apartheid
##zy
##bc
sake
matched
[unused985]
extensive
interned
wwe
yep
speaking
mustered
colombia
layer
peripheral
##rdes
↔
1713
loosen
consequence
himalayan
[unused125]
[unused142]
nape
[unused569]
confessions
reluctance
##♭
[unused947]
dorothea
known
viable
つ
原
abduction
manpower
180
injuring
##cos
##let
upstairs
shuddering
emotion
[unused787]
[unused928]
physician
statistical
mafia
procurement
tome
foraging
##thic
seconds
##ically
nolan
東
fractured
measurement
[unused290]
##ᵣ
ranging
panels
rom
panicked
scalp
ahmedabad
kinetic
taps
specialization
sarcastically
##lch
obvious
flawless
etudes
1886
mythology
nitrogen
cortex
##ropolis
into
##valent
##¿
##雄
##oll
remington
##н
##zcz
rev
winery
##fur
phosphorus
##asi
1986
purely
217
ま
glen
##ivism
##ₘ
##3
rodents
ditch
opener
amsterdam
##ᄆ
oracle
;
cable
mcintosh
embarked
##ffle
wins
##wyn
veteran
reveal
pioneering
adi
vector
##nstein
fuss
##etano
1679
brazilian
canyon
mongolian
outright
proper
metal
concluding
##mation
obtaining
weekend
teams
specimen
harmony
heads
deployed
analytical
scotch
cove
meteor
tobias
laird
perched
wheelbase
##oop
[unused528]
##rp
[unused140]
tackle
relocate
your
suspiciously
##rnier
253
##upt
##bian
##yeh
relaunched
macro
frail
##د
list
fatty
##break
vapor
nrl
affluent
reception
appearing
bathurst
assertion
##宣
##yala
##bread
mule
funnel
contracts
##rda
cardinals
jenks
conditional
incident
overwhelming
வ
classical
given
460
consulting
socio
chicks
##gui
1897
toni
employers
series
arbitrary
criticism
ز
##rna
soyuz
noodles
martini
##sas
vincenzo
preface
liberal
し
##feld
fremantle
drummond
##mian
##scopic
wigan
muriel
airlines
marche
1933
##phi
blu
dragon
succeeds
circumstance
springfield
##fied
##vine
##keeper
resources
shocking
libre
losers
vila
coven
pink
moral
buried
##bm
conservatoire
champ
puts
′
protecting
##ura
associations
##tively
##onic
mathews
[unused362]
oakley
laying
does
aim
##hum
harmful
raju
empty
kenji
isolate
rank
##क
आ
正
aboriginal
perspective
##horpe
intently
bloomberg
[unused797]
ebert
dh
eric
1860
handsome
television
crowds
ལ
₂
polly
##ław
specialized
ʲ
dual
213
hiking
##corp
##beam
multitude
observe
##berries
traffic
wb
consonants
horse
alec
27th
mbc
[unused398]
##iques
shape
recognizes
fading
##bber
comics
rahman
##rar
traction
ecole
merlin
incomes
nod
brake
afforded
augusto
[unused915]
changing
402
funding
##®
sacrificed
##yin
colton
boomed
groundwater
semantic
dial
cleric
aqua
[unused869]
carvings
##ror
minions
##estinal
##力
##skie
frontal
##grass
signatures
mustache
eurasian
today
1903
large
palm
turnout
##ة
brody
marital
##zos
facing
[unused543]
gale
amenities
inventor
collision
elves
archaeological
revive
##unds
kumar
electronic
islamic
[unused967]
sardinia
amplified
cobalt
mexican
stop
oasis
corrupted
ssr
1850
clutching
punjabi
whales
##uit
##utive
cores
##⊕
1570
displaced
##ield
complement
meanwhile
casimir
commandant
rampage
luigi
java
confessed
audition
provincial
lithium
巿
vice
practices
verge
protestants
##raus
challenged
fletcher
poppy
supporter
mathematical
##rge
refuge
##mona
nuts
##dez
ecosystem
basis
61
batteries
residency
ghana
國
crushed
protocol
devil
>
defensive
wisdom
peasant
259
reclaimed
##athlon
##erative
shop
nfl
guinea
ting
harriet
##ζ
佐
##bler
##tes
changes
bon
armand
##元
##hm
cyclists
monastery
##hn
unpaid
##kic
##†
gustavo
reins
mazda
denis
見
giovanni
pussy
dealing
##}
##cated
unbearable
abbreviation
anyway
magnet
widely
wage
[unused617]
recipients
cork
arching
occurrence
spines
equivalent
##cratic
establishes
sincere
##nberger
##aya
invaded
communal
telegram
##atable
raining
bonfire
madame
irvine
statues
##arian
altogether
southport
development
ox
coiled
defend
duchess
##ו
deception
reborn
reporter
marsden
##ga
bilingual
schwarz
distinct
stills
ride
hays
heath
##itz
supernatural
boilers
compiling
##kir
metaphysical
educators
##ர
bmw
[unused391]
##ac
likewise
##ritan
##ito
cornwall
paranoid
##dent
terribly
knocked
drafting
shook
ර
legend
subcommittee
brunette
announcing
道
following
80s
bmg
##hot
belmont
315
squid
depiction
##non
ethnicity
177
vernon
##長
##borne
true
vested
flaw
arch
1
shoreline
##tv
ষ
talked
explorer
##ipes
gothic
gaines
roy
দ
businessman
rooms
fitting
mirage
trilogy
##श
##cr
pearce
spanned
detached
relate
fortune
grouping
##α
##eurs
choir
spear
stored
michele
##cure
inspecting
necessitated
unification
galveston
rodeo
thanksgiving
delegation
complaining
fellowships
relation
variations
dependent
widened
icelandic
vin
merger
societal
[unused553]
##eller
freeze
##uss
defiance
dedication
posing
##iss
##rito
##–
ː
charges
smelling
rainfall
equal
ned
worsened
[unused73]
slots
permanent
##ics
breeds
ᆼ
disqualification
ba
##meral
medicines
examples
canary
ness
subsidies
contacts
sen
duration
criterion
divine
wipe
incarcerated
##kel
townsville
tequila
shower
shri
##cat
govern
##glio
[unused291]
##sner
uniformed
commencing
guards
spencer
cloth
chances
willard
1878
climates
raider
favorite
projects
contrasts
wary
buttons
beatles
##torium
##ης
sheet
##c
##eve
mentor
[unused896]
zip
楊
times
disputed
preschool
airplane
##genase
目
trembling
##غ
十
listings
stressed
##lge
widows
dea
375
##spar
##→
organizer
range
amnesty
whorls
43
endorsed
##weather
calculus
flynn
experts
plunged
malacca
##rana
##{
backdrop
studies
1969
nicely
tearing
awoke
##в
##ibility
quote
##eed
payment
tunnel
rq
##པ
status
##film
gunfire
##do
##sily
jaime
karachi
sanskrit
indian
##ono
ᆯ
bitterly
felt
dane
administratively
grease
surprisingly
ต
[unused580]
excessive
vows
navy
wizards
1991
##uled
293
##rdan
extraordinary
##well
##ler
emails
comprehend
murdered
grenades
globally
##bbs
needles
meng
manages
clergyman
stay
promoting
naval
replay
##ey
eighteen
participates
[unused79]
##ord
biotechnology
misunderstanding
cantor
##ifolia
##ब
utmost
refrigerator
multiplication
czech
receptions
built
molecular
societe
rolled
##介
##28
clive
las
hansen
[unused471]
groans
anthem
slung
moffat
##chrome
jordan
collections
sahara
arthur
separation
peruvian
##wes
arbor
ratio
marco
revered
upgraded
ll
baseman
mutation
shade
sited
ss
toby
trio
##ending
marge
##ᶠ
[unused850]
##hort
##lde
##dine
clutches
tickets
temples
skinner
cw
views
picnic
##lke
visible
foxes
grassroots
locally
hurting
reviews
##agh
favourites
prizes
##osed
optical
##idal
machine
cmll
1976
birthplace
##ev
sniffed
thrive
##セ
##una
##gel
dismay
[unused572]
mattress
##五
1920
##iana
gradient
oboe
statutory
cruise
ˤ
eyebrow
##aint
##fting
tally
doorbell
##rocity
bare
suspect
cocaine
1715
snoop
[unused540]
artistic
prescription
##oto
##sities
##gence
##gie
##gical
ක
notes
employer
##rix
kv
adolph
##ま
ひ
buddy
changed
backstage
contributed
miniseries
insides
lorenzo
clemson
gamer
conviction
秀
dawned
1632
oval
lastly
oskar
jian
lots
torso
apologized
footed
##gnon
##yla
625
thrilled
likely
teaser
ever
artist
juice
[unused855]
senator
banded
physiological
##jah
ticking
switch
##esthesia
hank
##sio
[unused213]
1726
shamrock
repeated
mineral
courage
theories
predecessors
mccormick
##ucible
share
##morphic
internment
experiment
blaming
penal
##,
br
sept
implementing
moth
##tiv
八
##go
gathered
barbecue
necessary
##ː
straightened
##nified
alignment
hawker
iq
novgorod
tangible
arterial
##ame
wore
cuban
##sters
taut
armament
counties
outraged
gillian
##cott
spotting
linking
##ร
154
nylon
##目
gospel
1758
ー
adventure
entertained
raj
##ラ
##ythe
##ɯ
sawyer
olga
apartments
autobiography
##ection
already
##writing
partly
figured
registers
colleagues
spirit
piano
trial
##rane
##rem
equations
linguistic
alpine
evidence
manfred
##viere
[unused663]
charged
hooked
dances
elongated
pools
ev
blindly
geraldine
illustration
stairway
babylonian
stuffed
xbox
conical
sc
[unused763]
easier
boarding
apostolic
siam
广
masonry
failures
barangay
pride
##ied
such
##’
129
##க
tricked
distribute
##hra
th
##bane
sales
fiction
thanking
goodman
[unused704]
devi
asteroids
marrying
seven
either
donna
hysterical
assignments
currents
1845
capsule
[unused656]
ribs
racers
landscape
spike
ulysses
33
americans
novak
touches
##կ
euroleague
comprise
revenue
bologna
visas
notably
[unused57]
sylvia
alternatives
beneficial
tung
additionally
educational
★
##chuk
onset
vance
##75
gunnery
trump
steal
should
concentrated
communists
##working
compliant
[unused475]
پ
torres
leave
breaths
commit
compiled
dong
methods
czechoslovakia
terrorist
##rg
premio
##otto
pumping
res
##tsk
dundee
##bate
louis
mps
##xious
violent
uncredited
##bra
##ב
blank
##ien
unto
社
suggested
外
87
##uted
##cise
##bians
[unused826]
having
contest
[unused453]
bloom
distinctions
andrey
hydro
gasped
championships
undergraduate
syllable
##asa
##wn
accessible
cottage
labrador
##vres
⁴
##tagram
cords
##ppa
edible
dc
##lat
flashback
circus
showers
swat
streamed
aims
link
rappers
beaufort
mcmahon
sediment
##fusion
1724
##andra
households
methane
##erman
prey
##仁
barony
peking
undermine
lanes
accepts
calcium
ゆ
##inatory
beamed
outstanding
##tive
hammer
prematurely
sirius
ensued
reyes
solitary
beatrice
##titled
indigo
手
activity
jurist
acton
rene
sustain
scrub
restraints
fortress
inscribed
donnell
meantime
elevations
rallied
bar
rourke
collins
wry
##itors
scouting
##bner
stranger
empress
wellness
##aker
boyfriend
annual
camille
##nical
##fulness
##chi
##quin
hysteria
all
deposed
cairns
л
36th
##tute
##₎
accessory
och
##ふ
poorly
railroads
copenhagen
ⱼ
rallies
branches
[unused957]
macon
ours
super
veto
decide
reigning
raid
ne
allah
match
botanist
godzilla
tumors
consistent
##nard
##opus
1672
##ism
interviewed
##den
monica
425
##dom
protection
cracking
##⺼
##leton
lou
gasping
portfolio
rendezvous
m3
##ged
pendulum
shattered
transplant
installed
radiated
distraught
curate
[unused954]
##vation
nicole
##lub
##pool
une
newspaper
premature
witty
awakening
wes
desires
longing
huntington
##tford
'
defines
##jevic
casually
sermons
matilda
momma
##vyn
next
jeremy
munster
##ᅴ
prohibit
guzman
prevalence
##hl
kentucky
##y
plots
##arium
##yes
davenport
predator
ghostly
wielding
##ogan
##stones
herself
horses
##ctic
battling
styx
##₩
coup
objective
aloud
pang
slip
pro
forewings
curry
弘
hardly
watering
donate
sa
mart
ambrose
##¢
rebellion
ear
ᄌ
ems
spiders
weaver
tobacco
##ʃ
comments
settlement
##clave
[unused103]
europe
barriers
residual
mountain
syrian
1955
delays
jimmy
##ᄋ
parasite
organisation
nc
ryan
crap
##yce
##act
cathedral
chronology
agitation
pendleton
oven
heidi
ghent
##ffie
prosperity
[unused649]
mail
milk
[unused201]
mines
oscar
caroline
##sol
spreads
breakthrough
interfering
##room
essendon
##gard
aristocracy
banking
consuming
य
morning
##eira
##ori
radius
edmonton
insisted
feng
cruiser
lark
hellenic
benz
render
differing
majestic
suitcase
arena
immune
[unused630]
paragraph
##←
macintosh
strand
broadway
interior
khyber
relied
##phobia
1605
sumo
##tani
±
collier
praise
##him
anglo
complexity
##emia
mechanism
doctoral
mumbai
timbers
phi
##abi
apparently
tend
political
tomatoes
juno
clipped
swiftly
[unused773]
265
meetings
404
barnett
tunisian
##roi
serbs
stirring
perennial
##ima
undergoing
laid
##own
143
dates
##ς
dayton
federer
##+
[unused674]
shuttle
max
##³
##cula
libby
typical
dominating
checkpoint
##rret
interruption
##ifying
seam
debuted
counselor
[unused87]
##;
##hend
##lean
raging
lankan
##eded
cooled
beckett
231
[unused993]
sql
mixtape
symphonies
tribune
dinosaurs
dictatorship
replicate
##bright
##ines
underwater
248
frantic
##ry
pleasure
hounds
caf
improper
ce
favourite
pp
##teacher
burundi
##lar
toronto
regret
##oir
breasts
introductions
##cino
settlements
##ade
repeal
erasmus
##nished
##ppy
supervisor
##genic
1980s
combo
arcade
##東
##so
ngc
##kumar
scribe
##nton
exits
storm
bengali
furlongs
heraldic
2008
narrowly
baldwin
commenting
##wer
##ico
number
m³
helene
queue
fledged
##∞
##nta
raul
ska
carnival
infinite
damages
tackled
smoke
trident
sight
compulsory
##ο
yeshiva
refurbishment
imagery
alerted
inhabited
familiarity
bike
concurrent
##bn
fly
innovation
chad
[unused851]
racetrack
shimmering
[unused52]
ர
dim
hitter
styling
##pling
austin
₤
bellowed
plates
winning
teresa
han
depressed
##nche
タ
automated
astronomers
atomic
##phobic
prodigy
wanting
glider
bees
shelves
superiority
##wny
##olt
##/
lizard
togo
stein
commission
coventry
ideals
past
strangled
bala
##sel
crewe
migrating
conquered
hopkins
exists
##lav
relocated
coaching
[unused899]
bali
##ᵐ
●
theresa
melodies
##cards
darryl
##場
sagged
##fields
##tment
##eras
algerian
##achi
ui
sturdy
jp
says
[unused552]
[unused828]
spells
drinks
mccartney
jong
organ
marriages
##ħ
optimization
renaming
in
faculties
##kins
長
##aring
vines
patch
##bey
eddie
rite
##cci
dissertation
markus
concentrate
dickinson
##tucket
exactly
convinces
##hir
earthquake
mathematician
##eiro
objectives
##ressed
felix
レ
##cca
accordance
##jou
magnificent
[unused24]
iata
foo
##ip
carroll
promo
shark
dissemination
dispose
positions
田
↦
##iation
##aries
##elling
hunt
exotic
cbs
[unused417]
##jean
feat
assess
unharmed
thumped
##ises
wasps
shifted
runaway
joan
suburb
characterized
headquartered
melanie
mia
##া
##〜
##section
##pot
chaplain
pipeline
pencil
craftsmen
outside
relieved
lara
familiar
ख
controlling
different
sorrow
tempted
健
bite
tab
saratoga
invariant
backward
hushed
##sal
2016
creature
indie
stomped
offs
##艹
milos
accord
##ニ
##lands
fours
##hma
williamsburg
##18
busch
trenton
街
road
##vs
replacements
compare
##enary
handheld
##hammer
170
wrongly
##ctuated
supplier
underground
scripture
journalist
drugs
##ffen
union
mariana
bladed
roland
1628
1800
disdain
resulted
taped
dove
flavor
hostages
cub
rouen
charley
predictable
##um
salle
highland
seminary
modular
agricultural
diamonds
peaceful
cultivated
##sms
hooves
ہ
often
1814
##ces
##ical
ceasefire
columns
imaging
bounce
related
heavenly
take
anticipating
cafe
[unused782]
##cliffe
idle
griffiths
1940s
sparhawk
searches
endeavour
##十
rites
satellites
assumptions
dormant
broadcasters
initially
##ure
sediments
tech
##orestation
cheryl
expressions
gladstone
umm
blaine
[unused925]
##mania
##ren
[unused69]
stalks
conduct
##ᄃ
compensation
history
harassment
ruthless
##pic
besieged
##tem
illusions
endowment
##ruff
bathed
collective
475
##llon
ar
[unused370]
energetic
timely
especially
insulting
##ლ
enjoy
##alo
bumper
decidedly
utter
##ets
eagles
kobayashi
##icum
turmoil
jonah
fresno
teller
##erland
graf
aleksandr
μ
staircase
dwarf
∩
walked
danger
arabs
surgery
ᵀ
popping
##ysis
1963
##eving
twitter
allowance
##tead
integrate
americas
streams
living
bravo
1787
bakery
mono
boyer
##ᄑ
##tile
[unused20]
fingernails
##hwa
conducting
tending
cocky
punta
[unused735]
sundays
confederacy
croft
keep
[unused774]
##stein
overland
protects
165
intersecting
##usa
wink
rumor
girls
prime
##mes
jenna
##av
wakes
ultimate
coca
1880s
noun
##cre
red
uruguay
lacrosse
landfill
hypothesis
420
clinics
kicks
linguistics
regrets
258
##lver
nevertheless
pleased
saskatoon
warned
[unused594]
banners
privileged
##gens
chu
mueller
braced
vivo
lois
[unused498]
husband
##も
gwen
pcs
##а
fresh
namibia
sufficient
1755
expenditure
struggle
gibbons
v6
bracket
developers
vfl
[unused564]
crafted
burt
chopped
tribunal
engaging
##dan
sea
creativity
opposite
##ciful
##9
[unused625]
loudly
[unused316]
galway
residence
served
##wil
absurd
##モ
[unused89]
gardner
raced
food
recreated
districts
howling
##nee
##ool
[unused460]
nonetheless
mission
##falls
##omba
states
manor
pearls
too
bordered
celebrations
securing
intercepted
devote
nara
shivers
##ere
107
shear
hires
encourage
hay
[unused937]
##hu
riot
contention
##©
envisioned
zhejiang
##isk
fight
[unused867]
dancing
16
##lated
tatiana
gonzaga
check
butcher
isabel
valiant
witch
path
paradigm
localities
jacob
forceful
murdoch
##ond
crafts
[unused857]
handles
created
cromwell
##planes
nepali
corresponds
caretaker
hanover
##tical
##jn
##fighter
1952
till
##zzi
lange
wool
blues
##wall
rubber
bruised
arrives
mick
toppled
hissed
050
dude
percy
spa
##rigue
succumbed
borrowed
cooperate
##born
episcopal
ᄎ
occupies
evolved
languages
flushed
disco
thorn
##ck
privately
[unused889]
jacket
食
item
##pd
##moto
blushing
##uo
paramount
argus
不
raymond
craftsman
##cend
##tag
concerning
hostage
charter
gene
highlight
forums
##iculate
bodies
##vin
runes
background
factual
settling
740
##zily
##yle
[unused19]
neolithic
1743
60
restrained
holds
hui
##glers
##ও
barge
wilder
heroine
##aurus
waves
characteristic
unmistakable
##།
skipper
valley
vectors
##class
alumnus
antique
trails
earnings
[unused642]
##ured
1871
##game
þ
dinamo
andover
##cide
leary
moods
##～
##lee
##bury
##growth
lookout
bout
mexico
emmy
##µ
[unused737]
preview
exploding
hd
regained
radha
multinational
delilah
showed
240
centimetres
beads
barely
289
bellevue
##ල
fashion
sap
carnegie
540
airmen
gloves
bowie
##yer
##yam
labor
grey
concordia
stripped
ɐ
##cit
ecuador
piazza
undertaker
##司
##春
budget
picked
1890
smirk
bancroft
suffering
##istan
##hai
ष
55th
##sport
##ан
95
[unused504]
kit
pierce
hearing
pad
west
achilles
airborne
everest
shoulder
hasn
wings
##ists
##beck
##kura
operating
furthermore
sensitivity
called
layout
courtney
stocked
venezuela
##ily
##routed
hyundai
labourers
downloadable
mab
listened
##里
firmly
urged
thing
ruin
virgin
porter
canada
foothills
shortly
bring
leeds
dame
prefer
[unused488]
[unused708]
squinted
##生
albanian
murals
brother
soap
brethren
##erry
##－
frustrating
nix
duly
pen
norte
aaron
conflict
##ego
modulation
horticultural
##ಾ
scars
abby
rockets
reptiles
##tled
discussing
discouraged
##rrard
appearance
tourist
two
museo
robes
alcoholism
nebraska
nam
##oss
basal
shows
inactivated
cantonese
india
als
pistols
cause
dion
heal
plague
##ץ
sweet
notice
graz
significant
##@
feather
storey
democrat
anticipation
shirt
baden
##ij
pe
precision
[unused982]
tortricidae
wise
plc
##unk
roast
truck
screenplay
sooner
cf
nl
1763
analogous
sevilla
parallel
maia
590
##carbon
dora
distributors
best
##pack
erica
ole
improve
anxiety
treasure
explicitly
umpire
fisheries
##cast
domains
frost
moi
扌
mainland
craig
aimed
ruling
spectroscopy
republics
abbess
consortium
toilet
predominant
##landa
##bilis
emphasized
hated
tunic
marshes
iss
930
northern
paperwork
corresponding
fitzroy
doubtful
rejoin
foreign
[unused597]
チ
inhabitants
gps
arising
##hrer
solos
ae
ou
detectives
##ught
1712
flemish
fetch
##ries
kira
orgasm
##ʻi
stoke
##へ
##kal
telecom
##チ
##ogical
introduce
priory
roma
ヘ
redemption
clashes
##ition
instinctively
1609
intellectual
[unused399]
controversy
inch
registrar
[unused551]
canal
potassium
ronan
faye
davidson
jess
mystical
taller
##sw
##truct
role
stationary
factories
dissipated
text
susquehanna
elisabeth
##urse
five
[unused923]
274
lean
intercollegiate
duluth
##木
chained
austria
moss
amid
134
concerns
jerked
##anus
sipping
kidnapping
magistrates
302
registering
1663
meath
##plane
##rop
penny
barbed
lucha
robyn
##щ
skyscraper
##ning
finnish
telephone
hadley
preventing
mushrooms
rodney
##tle
asa
barcelona
##pps
家
miriam
mesh
ـ
[unused262]
cinematography
##rissa
benefits
greenhouse
ric
gabby
##wani
insert
`
rampant
[unused28]
connected
[unused753]
##orno
conservative
##list
harvey
lawyers
##ffs
itv
##成
urging
misty
microwave
combining
##rooms
287
determining
francaise
exempt
supplements
demonstrators
197
headlights
applicable
classmates
[unused470]
darmstadt
neglect
##eborg
metropolitan
seated
topped
recipient
stubborn
structures
germanic
luce
retrieval
tyrol
gough
house
sweden
pantry
glands
wilton
footballer
undrafted
spotted
relations
£10
morley
##ւ
decorated
lok
premiered
ewing
emmanuel
##tua
##guard
narrator
##ham
花
simone
##earing
herman
rashid
##shaw
tears
lasted
borough
effective
hauled
sherman
##aire
abd
entrances
navigation
canberra
comedian
elemental
elegance
sparsely
emile
erskine
##thal
crucial
michaels
intending
dye
global
mobilized
##rland
modifications
葉
1781
concluded
##imum
detention
burning
pinyin
##egorical
meg
##ke
unsure
grounded
##sos
characteristics
syndrome
05
##ory
##uro
xiao
brushes
depot
encouragement
donald
undo
dysfunction
asylum
indus
coptic
##tidae
amiga
lee
##loe
gerard
sponsoring
energies
##heart
deny
##kled
gora
47
kang
taiwan
block
ring
whereas
regimental
##！
前
peel
unprecedented
bulk
avenues
paused
diary
clement
##jord
precautions
##oning
246
[unused415]
chatter
leaflets
numerical
##burgh
187
benefited
##अ
225
##mouth
[unused671]
markings
[unused494]
anything
##ns
brat
canon
tragic
##fy
cancellation
holstein
##achal
##井
loads
negatively
oyster
yugoslav
մ
volga
[unused188]
ヒ
thumping
tutor
republic
##uan
affair
invited
##nami
anthropological
rye
parallels
maddie
constance
greenfield
##с
##man
submission
modify
props
become
grimsby
classes
##xt
gratitude
##ient
##eman
flipping
sighted
penn
var
406
karl
oblique
generator
classified
##mma
saddam
eyre
flashbacks
audrey
cheap
decreases
mitsubishi
pulpit
viet
athletes
hurled
##₀
##」
airline
henson
intimidating
secondly
duff
##fight
sipped
##ange
sims
sri
hut
##zd
statement
bytes
trademark
stakeholders
##ron
ocean
decreasing
wc
##eaux
bengal
supposedly
villa
compliance
respected
seth
expanding
tying
hutton
##ɕ
watts
tuna
monk
bribe
retribution
bach
adaptations
##彳
integrated
actually
tenure
kosovo
##ila
##ffed
mounting
humboldt
connacht
lockheed
##ula
[unused676]
atmosphere
expulsion
doesn
controllers
zeke
scarcely
##ivation
administer
lack
widespread
eastward
ة
cake
lila
cecil
intervened
##for
passes
gate
minor
hostel
fairs
proportional
##bh
fitch
rebellious
##pu
unesco
afi
263
lakshmi
scenarios
partially
space
transitioned
cp
☉
pursed
##ে
strategically
jim
hero
persecution
musee
winger
suns
banana
##ination
noon
calling
famine
##ette
oriental
hose
##?
─
commissioning
忠
cop
##stor
##ª
##ated
geographic
fortified
simulator
##禾
museums
turnover
[unused941]
##fication
tina
坂
##orth
hampson
##chal
stumbling
coordinating
triassic
dubious
collaborating
pleistocene
##ら
##bf
richard
latin
hostilities
lyndon
plight
annoying
##biotic
toe
knots
ramp
##tana
drinking
electron
roommate
schneider
##cano
iain
length
reckon
podium
administrations
obsolete
[unused134]
[unused404]
1953
prep
resolutions
[unused911]
comedic
qualities
1984
bree
demoted
asleep
building
fate
##con
eligible
histoire
##rrick
1766
lumber
mcdowell
##table
allie
##had
tar
rbi
pm
conventional
executions
salt
bella
singled
##樹
bai
lucknow
chopin
[unused144]
dauphin
timetable
enjoys
mighty
soldiers
##oco
bombers
cognition
involve
##部
fungal
marissa
##sc
rhythmic
donnelly
venom
##haya
principal
ledger
##nism
##≈
〜
inflammation
skinned
[unused332]
runways
mid
##nto
##folia
professor
churchyard
ezio
##cap
##auer
amended
expeditions
siemens
##י
manually
commercially
colonization
choreography
##ه
exquisite
##shin
wince
garion
wentworth
helpless
tavi
cherry
intercity
adoptive
pants
sadie
##mounted
axis
because
cannabis
palmer
##zier
growl
ᆷ
discourse
occupy
[unused944]
moses
daytona
elbow
##llen
contemplating
whatever
198
brighter
parliament
##ope
rules
sienna
ल
ivan
puzzles
inconsistent
fascinated
##gm
sequencing
navigator
floats
crashes
turks
##oku
octagonal
romance
suits
falcon
emerge
##bell
spartak
brutal
lacks
catalyst
congenital
##鈴
nirvana
coughed
fares
masculine
spawned
gonzales
reno
forerunner
##cke
monuments
samurai
comune
##夏
happiness
limousine
##adt
rubbing
casablanca
[unused425]
derelict
communicating
martinique
implied
bungalow
##kai
horror
##ologist
examining
administrative
lancaster
239
provoked
##lau
quarry
turbulence
rustling
papyrus
heavily
landslide
neighborhood
graceful
notebook
stade
wight
opaque
¼
##lish
pulses
##l
sincerity
excuses
##eye
ceilings
##ides
suriname
porch
graveyard
provence
unmanned
##vino
afghanistan
##kan
prevention
pup
theorem
circles
oversaw
comic
jakarta
##lier
##oting
##？
##ize
evergreen
slams
synthesis
caine
##sil
baronetcy
##ব
seals
2014
[unused386]
connectivity
patrick
sunk
affiliate
illustrations
##hof
bordering
324
faith
payload
obscured
х
scenario
[unused68]
##ika
##ald
drifting
##त
##lized
[unused791]
truths
[unused549]
leon
calves
juliette
dat
mango
modernist
##ᄂ
tianjin
##kki
choice
brigham
relationships
qualification
jubilee
gore
reorganisation
stamford
cleared
##ingham
exclusion
tram
bodied
hoarse
trams
##hawks
demonstrating
##½
forced
controlled
signaled
respects
##ʑ
[unused901]
cradled
##rove
descendant
commentators
##ando
flair
valerie
##aus
υ
titan
jumping
dimension
browning
partners
[unused682]
##vered
mentions
isles
##ease
taekwondo
landau
1934
##nig
franz
bless
scheduling
##ingdon
st
hooded
maximize
pig
midfield
mariano
occurs
accredited
tactic
bucharest
reactors
192
operatic
turnpike
sequence
maj
saxons
textbooks
washed
##bla
convict
910
159
hopped
curtains
propaganda
mcgraw
somalia
lexington
icons
##●
mario
-
proprietor
[unused918]
jealousy
mural
志
ᵍ
##ele
chevy
tapped
##len
thankful
squeak
tightly
ndp
elliptical
semiconductor
##∘
[unused274]
crowned
haze
122
gentle
tong
jj
hosted
##sable
decorations
##wal
ʒ
advocates
adobe
el
meals
france
mask
¹
careful
49th
##uso
rumours
ti
1746
##fin
taxpayers
ultimately
waterford
heel
consciousness
honourable
##notes
slave
sub
##phon
kaiser
diego
surveyor
1835
energy
starter
rufus
padua
armoured
profile
bennett
nissan
speeding
drumming
animator
immortals
twigs
iphone
##anta
contestants
hotspur
auto
consumed
unlimited
##olio
reduction
1847
contemporaries
##nberg
cade
lyrics
relaxation
throbbed
愛
郎
##bling
nato
biographies
maroon
##led
yates
cassette
##eration
bodily
##fare
sequels
crust
coyotes
##朝
[unused910]
dripped
dieter
fey
hornet
webster
saved
singh
numbered
pali
reef
thereby
flush
1788
approximately
dorian
collaborate
9
♯
yanked
mandarin
correspond
crusader
poems
ethernet
envoy
controversial
##cey
romano
##ita
sponsorship
hear
##zyn
dreamer
northampton
lyle
laughs
λ
##wen
fearful
[unused397]
attackers
packaged
robots
catholic
values
[unused695]
[unused538]
similarly
pursuing
bricks
06
##pathy
various
deposited
frankfurt
bangalore
doubts
caliphate
macdonald
pa
™
rotary
enjoyment
azure
menu
campaigned
investigating
##ʔ
bloomfield
[unused512]
muslim
deficiency
greer
trust
##unce
attained
##zaki
貝
4000
##yme
daryl
hunger
circulated
sofie
penis
seasonal
mu
##tish
bishopric
residue
folds
##gun
alumni
216
##it
fleets
leslie
ψ
##ams
county
##tight
##em
compass
saxon
##iel
##rot
casual
tenant
plainly
details
dialects
image
builder
##ering
108
planner
2002
demonstration
##bria
[unused171]
1945
relief
##stered
[unused419]
cannon
aix
imprint
angelo
bayer
duval
##נ
determined
[unused792]
and
northbound
平
graphics
lifeless
##iad
braves
##ua
advising
nationalists
##vius
recaptured
bolt
tract
buckinghamshire
##eous
tame
draught
##lving
kw
delighted
##vent
guerre
wessex
tonight
complementary
olympia
##tow
ク
particle
rivera
##kti
##azi
dioceses
assistants
euros
tactics
landowners
36
##ナ
organization
##গ
commemorating
##wi
##train
captures
client
seton
disk
freeway
syriac
connor
clubs
held
ported
##cturing
agile
anarchy
pembroke
indexed
##bb
hyde
##lich
bowed
##mur
helpful
lilith
asha
billing
practised
patterson
erase
montenegrin
presiding
235
scenic
staying
eats
rearview
bluff
shouldered
aspen
phase
##rup
karate
modeled
experienced
arlington
roundabout
illness
sichuan
goo
films
kinship
saturn
reorganization
warp
ள
madam
outing
shone
→
mature
hitchcock
lawful
##ades
scratch
transmitting
routed
rocket
oppressive
1949
##roll
barrett
[unused381]
daring
schedule
##vc
market
##ience
competence
serials
ricardo
merry
biographical
sniper
tobin
slopes
laurence
石
stuff
##ani
laboratory
veterans
##ovic
##hian
stables
##coat
davies
peyton
sly
##dation
napoli
shock
ballads
##taff
##igny
[unused809]
domino
五
##oris
bobbie
except
primarily
realms
partridge
coefficients
cooler
deity
reform
##nn
baton
##firm
##laid
bun
##lide
predators
bacon
pt
consolation
baggage
##eva
economical
startled
plateau
clues
##xing
collapses
males
dreaming
##ively
schultz
730
fulfillment
##lson
detailing
dee
usual
universidad
behind
drowning
dali
featuring
celaena
payments
perform
##ash
mcdonald
shallow
chairs
uttar
looks
糹
gameplay
##uve
marquis
khalid
[unused818]
hendricks
##alle
swamp
truce
[unused387]
ambiguity
##ᆸ
modified
555
integrity
##beat
ə
characterization
阝
britain
mansion
[unused53]
##ops
kathleen
intimidated
array
directory
phoenix
photographs
##elis
likelihood
clermont
university
michael
travelers
[unused426]
##wan
karen
nodes
ferns
robust
free
dhabi
asthma
##arded
game
buyer
nsw
ɔ
identify
makeshift
kade
maryland
mini
##abe
114
ram
folklore
proud
freud
layne
smiling
caribbean
##rish
bracing
bill
terence
##ward
scramble
sans
production
wax
jewellery
##bl
##ncies
maze
[unused752]
412
manager
fran
waived
##verted
‿
reid
biographer
##ats
bombardier
ganga
jazz
inside
##ου
フ
trailer
austrians
silicon
restroom
##ve
outspoken
bosnia
juliet
business
grace
negotiations
colby
##rya
[unused16]
duchy
##rong
longtime
1899
tay
[unused208]
troy
grasses
centralized
”
##uw
##van
avoiding
dish
gaming
##lene
propped
organizations
colt
fraud
deeply
minimize
hush
##sius
1721
zachary
motorola
muscle
1932
abandoned
francisco
gran
sketches
adaptation
angered
1990s
blooms
claude
streetcar
scope
soo
##pace
endings
womb
##ntly
##ifiers
homosexual
threw
##hr
drawers
plotting
heels
drilling
coliseum
##rer
eugen
ˡ
portland
intriguing
##nds
terminated
##অ
emily
##selle
defender
remembers
dorm
bed
##ida
mentioned
##mity
palms
ligue
realising
##գ
requiem
ր
##acle
##osaurus
##more
defeat
onboard
ridden
payton
[unused248]
artworks
[unused862]
field
signals
showcased
claire
grimly
directorial
uefa
cheney
wrought
respectively
##ᅢ
stir
ை
##uting
towels
freight
##sk
laureate
expeditionary
consular
##chemical
reissue
preston
##nier
tracing
projection
reservoirs
##tablished
strains
lan
[unused605]
markets
myths
hat
[unused182]
jihad
feels
##ा
posthumously
##nus
##rder
superman
marshall
##write
chemistry
parish
berry
[unused168]
[unused363]
espana
have
pounder
[unused432]
achievement
python
fruit
northward
ronnie
storing
##nging
utterly
simi
inaccessible
institution
strategies
weber
##ћ
excellence
##ノ
renegade
ю
teddy
among
##furt
fontana
[unused942]
found
trembled
joshi
tre
josef
##shore
tension
ordained
offence
device
failed
rented
computed
epoch
##uber
hutchinson
##lo
cole
noticed
jolt
braking
ghz
arrived
##talk
mar
vermont
ears
cummings
mcintyre
ex
mouthful
scooted
##nor
[unused331]
[unused465]
onstage
vanguard
pep
knotted
##gen
##ark
º
##mar
##iz
guts
dei
submitted
evacuation
##פ
grooves
[unused334]
effects
##ت
avail
rushing
hamburg
shaved
ᄅ
##rad
innocence
⺼
秋
spoken
lb
##asian
backstroke
rink
consultation
caller
sudanese
stranded
huff
##lus
immortal
##章
visions
consequences
insistent
yelling
intervening
##don
ड
literacy
##ign
nippon
feldman
confronting
soothe
[unused14]
norris
歌
springer
##bella
brunswick
[unused13]
editions
##wicz
madison
coinage
pushing
increase
sorted
catalan
־
##ils
maori
diplomat
drift
spend
##ible
fond
##gny
##ogo
vibrant
stanton
ports
cities
##elli
inhibition
extremes
acted
exhibit
nielsen
##hora
cretaceous
tariff
ʑ
einstein
advisers
operate
unusual
pasta
##lles
prayed
prized
##戸
compatibility
precursor
##⁄₄
shredded
thus
ham
unix
sul
madman
##ire
harrington
##ree
##mmy
mi
ft
##dle
##monium
crashed
selections
mason
[unused487]
1600
ash
##ₐ
leadership
kendrick
##ᵤ
parkinson
ibrahim
thank
bid
clerk
##inen
##rr
network
caucasus
##ige
gmina
maintain
scientist
resolving
##zh
##tary
skater
##hood
##eme
slapping
anyone
բ
sf
pursued
vitro
transcription
deteriorated
##kaya
criminal
##is
##vna
trauma
arabia
offerings
##tters
grape
piss
collateral
pitt
##ᵗ
##ed
montreal
asher
##iensis
khalifa
framework
ether
spilling
orchid
uncomfortably
swindon
##cous
##か
succeeding
far
hired
a1
portals
き
1950s
##ising
commissioned
sponge
csi
tna
clap
1993
##iki
##iol
led
horrible
##：
aback
commandos
pointing
mystery
spectators
ngo
[unused878]
##xa
##may
began
ao
haas
[unused508]
comedy
literal
trail
1880
beaumont
pueblo
1741
conservatives
##cio
##‰
demonstrates
negative
knights
foundations
gotta
northeast
slipped
##kas
##nail
##pas
elusive
##サ
##mb
geography
尚
[unused621]
deepest
stink
##hic
##elles
##naire
##eles
rte
healed
##koto
insult
escorts
mirror
artists
earth
pioneers
##dust
luminous
mukherjee
[unused529]
rivers
denote
650
scan
multiple
songwriting
existence
transient
rhea
khz
constituents
acceptance
willis
510
acid
accomplishments
model
clinton
ɬ
profiles
252
dans
cyclones
reserves
baltimore
diver
interested
rna
graduation
##pala
##iens
antiquity
solemn
[unused689]
##aceae
listener
##going
1736
emancipation
sustained
confidential
visit
ceased
##emy
##oin
guo
caressing
wwii
nepal
##hore
chieftain
popularly
##pw
##lana
ে
maccabi
##lom
##rwood
incentive
##و
##г
grande
disadvantaged
[unused946]
[unused980]
signs
distortion
jock
##poulos
ape
rounding
##erin
indices
##way
fairfax
grid
augmented
[unused730]
hostess
retirement
##ities
##ln
overhead
##博
##gos
engineering
adams
reunification
aramaic
canonical
faust
damon
florian
covent
remade
##ต
[unused459]
la
indefinite
##₃
##music
vast
blinds
denoted
##≤
[unused561]
initiated
resisted
ld
##litz
##■
pierre
[unused842]
δ
[unused800]
brown
stars
hideous
barnes
co
whitman
##ount
##uj
）
babe
britannia
monterrey
amateur
rarely
##ses
##11
ave
above
swept
avant
workshop
madeira
##tase
commercial
hood
muslims
however
clear
£100
##forms
adjacent
bastion
cameras
meaning
steered
qui
##ound
blow
berg
cumberland
fuzzy
leonard
masks
diplomatic
surprising
##ν
successors
else
polish
arabian
moat
##。
##ours
throwing
engulfed
igor
saw
grins
racecourse
tasks
subjected
railways
wounding
polymer
absently
susannah
vertical
##end
brighton
hunts
flourishing
clan
mitch
stomach
limp
warden
01
protesting
abstraction
wilbur
alam
galen
ramos
catch
magical
[unused74]
bladder
sociology
mercantile
benches
journals
cone
##ots
poland
drafted
##lip
##rized
coco
##ldon
##hara
smallpox
suzy
serving
basically
initiating
##jk
tuned
observers
##39
sizes
war
fielded
##ァ
90
haley
morrison
kyoto
wasted
con
##林
protestant
scrutiny
spoon
##fk
vacuum
random
scenes
qing
quieter
release
##een
remaining
right
sing
solar
jaipur
vidal
##yana
emissions
cruel
displaying
while
178
arrival
appropriate
shootout
batavia
architect
##ght
##lding
rebound
supervising
coordinated
exiles
adjustment
##ones
queen
ق
tolkien
##rius
##hyllum
shrines
nut
condemned
spouse
etc
urgency
gorilla
overall
inclusive
hello
gulp
translated
smiles
their
petitions
profit
also
treats
believing
##rod
jordanian
－
##ria
monroe
siegfried
matteo
monarch
muse
external
completion
##hak
zoological
niccolo
balanced
apple
alloys
elect
[unused586]
##cial
oswald
:
grossing
opt
cheek
injuries
vijay
sending
resided
adapting
##over
##qui
1885
fluttered
##isa
184
ᵣ
rosen
departments
inhabit
jeremiah
matthew
surround
301
theoretically
honda
someone
ia
##iction
silent
station
amar
paying
##zuka
usa
deemed
ellison
##ggle
##mbling
behaviors
caravan
##as
package
experiencing
threads
plants
1765
##cis
bastard
mosaic
bible
can
appalled
bonds
bet
yellow
geologic
plaster
leinster
pleas
disbanded
brain
gripping
management
remote
drives
kimberly
550
epstein
reminding
##otte
marxism
elderly
recalls
horseback
plains
roster
squeezed
[unused601]
##evic
##rds
remake
1849
strengthen
periodicals
confront
gables
chun
rustic
behold
[unused64]
temperatures
foil
greensboro
##oz
turk
dividing
hobby
##nesia
horrors
musical
pagoda
gravely
2005
doll
trucks
[unused772]
##usion
anton
lutheran
adequate
##ques
amidst
smart
stirred
numbering
##pment
update
##anna
answering
##江
harshly
ached
etched
memorials
##zel
##土
##nation
subunit
enjoying
baseball
exeter
c1
eliminate
impatiently
mcleod
uneasy
[unused833]
educated
school
lenses
poe
worshipped
callum
##erted
##redo
balkans
##cycle
earle
countless
lennon
mildly
blacks
eh
##no
ministry
[unused163]
hitting
herrera
letter
##inus
patterns
sat
administered
gaelic
majors
rural
theological
uganda
smith
##deck
selection
vital
repository
341
ₗ
compares
1977
said
arms
extraction
appliances
angled
##nagar
و
mustafa
taxa
dukes
[unused270]
exclusive
andres
bicycle
define
amber
on
communicate
secretariat
cowan
potion
##vity
bram
lc
fork
##mut
miraculous
regulator
corners
abnormal
booster
##vu
[unused161]
stood
surroundings
cliffs
generators
1649
gut
synonymous
jenny
##meister
wilde
##ষ
obstruction
opium
weep
[unused84]
boots
[unused8]
仁
tangle
locomotive
##ples
1727
veins
goalkeeper
tinged
danzig
##gies
##tained
apollo
creamy
teammate
sitcom
figuring
##zawa
nicholson
##zione
chemist
voyager
beth
torpedo
harmonies
ء
lions
explosives
slant
courier
ы
marketed
motifs
##pod
moran
##oms
[unused329]
artifact
address
wilkinson
ufc
determine
dissatisfaction
##yse
accuse
##resses
attested
squeeze
soprano
combinations
awareness
mainz
##ད
89
voices
blunt
disability
indicative
1802
smoothly
paperback
##cs
sixteen
believed
mega
nike
tatar
significance
nak
friendships
vo
##izer
##sti
##lp
isn
nobles
都
downstream
quarrel
##etz
dialed
adjusting
gruff
beef
draws
planners
[unused960]
disappeared
clever
continuity
0
##mium
##cting
oversee
##pour
decomposition
dense
pensacola
uber
ions
remodeled
vulnerability
saturday
smell
ariel
##tek
##cies
win
saskatchewan
sim
andersson
cautiously
vickers
novella
yield
mccall
ŋ
maui
[unused441]
lies
riots
occasionally
surreal
##iidae
beau
guardians
yells
##ʒ
alert
sy
ops
charging
eggs
##yles
##holz
derived
patna
stroke
porsche
hid
##⊂
##70
erich
geese
liability
dialogue
##personal
dominate
[unused299]
gibson
galerie
comb
extant
氷
emphasize
trees
tighten
extremely
##tley
term
darlington
distraction
thud
sandwiches
whispering
transform
sharif
dwelling
[unused192]
1906
indicator
meyer
207
embassy
consequently
microsoft
henderson
29th
##orus
downing
looming
2021
355
cesar
editing
insistence
jew
tables
wheels
ying
##−1
[unused938]
ithaca
poll
##57
##ท
1916
angela
revue
desmond
inventions
trip
91
##bes
##—
aids
macedonia
structured
exceptional
mill
appreciation
##rco
া
##τ
logical
baghdad
swelled
reservoir
##eber
oxidation
##gara
magdalene
sealing
[unused326]
##tructing
##ki
keel
continual
residues
reference
##atic
##bour
[unused503]
##ik
年
[unused559]
沢
villas
sneered
alicia
vis
carlton
salvage
prelate
borg
matters
intended
##sing
##nde
morrow
honors
stimulate
peeling
perimeter
under
thinks
ট
##bird
251
cong
decisive
rat
internally
materials
mocked
##¾
##rian
pressed
league
influx
moment
realised
##zquez
duc
##oed
##lini
thrust
crossings
archipelago
transgender
1920s
egyptians
tease
tattoo
divert
theologian
dairy
"
readily
##erving
##gue
nazi
opted
nashville
teachings
impatient
riga
##ع
##54
masses
renewed
alps
texture
friedman
##rence
asking
interchange
tugged
hawks
employ
##twined
utilize
##hy
taught
michelle
##lim
##typical
viscount
thames
voting
##rous
ulster
delaware
martian
[unused18]
worse
galloway
darkness
foreman
govt
radiating
[unused302]
sleeping
solved
##bid
salazar
##horse
lauren
清
1922
secession
oath
weimar
##eon
weaponry
armistice
##ə
##lok
ல
jia
law
pardon
bryce
##ф
mansfield
enables
##rma
bot
##貝
¡
bromwich
disliked
？
commitments
promotional
auditorium
quivering
1908
netting
commissioner
watered
lab
gods
theme
rouse
ribbon
relatives
tonnes
reprinted
scholarships
cornell
buddhist
sign
lands
shapiro
costa
aside
##udge
drastically
better
stamps
are
affection
ℝ
acoustic
quartermaster
##icle
rosy
rms
expressing
leigh
[unused825]
pods
https
sustaining
##æ
##nock
retiring
boxed
optional
lobes
selecting
##city
ascent
lair
chaos
fist
move
werewolf
exposed
1852
tad
socialism
watershed
shrink
[unused926]
tore
rare
hers
mandate
##hawk
cupping
contiguous
amnesia
nadu
piled
##itch
##optera
curse
##shah
voted
he
poison
archangel
##worthy
rockefeller
yugoslavia
[unused992]
would
massacre
unauthorized
prove
amelie
burnt
##tf
studio
endeavors
##puted
cognitive
##ification
knot
harpsichord
salon
embryo
##rang
boards
organizing
##eron
##阝
##sm
communes
swelling
doing
coward
viking
##wana
dalai
2009
oceans
cosmetic
volleyball
sant
blanche
doncaster
polk
horatio
angels
napier
##ect
##rid
trent
vineyards
[unused505]
jiang
dusty
御
ashford
##vial
220
cereal
deleted
##mmel
##rch
keyboards
♦
seminole
slabs
irrational
carole
##hiff
finds
roughly
gaps
group
robotic
##hiro
remedy
188
proclamation
##anal
##me
##ttered
flutter
breach
specialist
del
extensively
soy
##հ
sheila
harp
apartment
yesterday
society
bigger
ascended
mv
qur
skill
loki
phyllis
441
##scribe
essen
[unused268]
wrecked
bounced
gifted
##rked
##ᴬ
##aj
tigers
##uel
河
ain
dirk
##車
treaties
establishing
incompatible
mendez
commodities
riff
lei
matt
searching
馬
repay
238
illinois
##tite
g
[unused651]
cartoon
##liga
##mps
aden
justify
##helm
jolly
##rrell
christopher
##sar
troubles
es
poole
mikey
generally
favored
##ᄏ
fighting
##roup
##nk
sock
spain
mph
##agger
##เ
efficiency
app
mix
handicapped
с
བ
liar
crimean
desirable
monmouth
groom
##ives
1675
ceremonies
suggests
louise
margin
##dget
##ater
ones
pie
economics
aggression
motivated
embracing
samantha
grit
completely
libraries
mohammed
vacancy
wasp
1650
reacting
flirt
leaf
motors
latitude
##gram
##herton
each
windmill
morse
sweaty
vaulted
[unused281]
collin
convertible
gloucestershire
sample
み
ر
horizon
2012
audiences
##eche
##ₕ
conqueror
communicated
disciplinary
[unused838]
##nidae
betting
[unused648]
charlie
salvador
lakers
wondered
rt
##enes
parking
cease
editor
bedrooms
headache
##門
ლ
##wei
nitrate
##hill
monitored
lore
intimate
##fa
nominally
gestured
exemplary
order
##vard
##38
polynomial
alta
bi
joaquin
##imeters
blurted
slicing
kensington
##bor
##bbe
kgb
##lma
[unused88]
3d
##aday
[unused472]
pleasantly
another
anastasia
auditioned
optimistic
stanza
mistress
ethiopian
ludwig
helsinki
##ules
dd
declines
##ज
runoff
1796
digest
l
proposals
##outh
1688
actresses
##iji
西
##cera
respondents
##rise
bloc
##rai
[unused320]
##ored
synthesizers
temperate
trevor
bethany
##lla
##ogen
hawaiian
biennial
##yst
tatum
ching
##sty
ᴺ
neoclassical
##sity
labels
##wind
1883
englishman
##ich
standard
##bag
stellar
silk
##tara
dale
mandolin
suzuki
enforcing
##tea
ד
walker
ja
occasional
councillors
mt
##ronia
##dded
housemates
##vat
##vel
slot
##女
##pass
##grate
德
impossible
cinema
mainstream
pony
symmetrical
[unused196]
ignored
க
misleading
[unused716]
petrol
preferences
baroness
tierney
autumn
equatorial
heir
##ming
cell
hitler
disappears
seminar
##antes
eastern
tae
naughty
##zano
quaker
economist
within
×
tits
・
manufacture
xinjiang
company
1937
economists
##原
##iated
unlike
##ø
eyelashes
hitch
reason
##…
galician
mont
##kken
cree
join
##№
gabe
salute
##duction
suggestions
disposition
ruth
##age
clans
##mada
##nish
2010s
gretchen
torment
##lase
rook
uv
wavelengths
callahan
remarkably
puebla
somber
##»
freaks
§
fulfilled
astrid
gleaming
top
orchestral
■
walking
ambiguous
yanking
carbon
westbound
abyss
herbs
[unused118]
outreach
friction
311
grown
sutton
recovery
churchill
softened
##ston
respond
countries
##astic
##drik
warns
body
councils
anti
os
greyhound
fifties
acquaintances
stimulated
whipping
railroad
arrested
##eptive
types
ranked
brawl
nanny
stat
nee
amin
blackmail
[unused906]
bullets
writing
[unused585]
crude
garner
##rock
##ari
fuels
devoted
heartland
emilia
cheer
incarnation
worst
haired
mackay
credit
jingle
recruits
?
courtesy
##schaft
nonlinear
across
eligibility
##ß
pisa
wondering
expo
##lvis
produces
##դ
yusuf
pac
civilian
environmentally
tiled
dependency
cedric
[unused481]
manage
pictorial
[unused429]
##ов
介
[unused898]
vacation
casey
inhaled
wait
chases
চ
sabrina
ₚ
dusseldorf
diplomats
##wig
##flies
##tsa
felipe
[unused873]
crete
ultrasound
mining
##দ
christoph
o
fundraising
##tors
##〉
600
summon
accordion
celtics
eighteenth
[unused743]
[unused194]
immersion
passageway
##新
achievements
[unused688]
fraser
zu
brendan
##fine
countryside
modern
nexus
paint
texans
bypass
returns
evelyn
episodes
rein
michel
aggregator
arte
toxicity
glint
cuthbert
teammates
stalled
caress
sky
saxe
remain
expectation
267
pubs
below
treasurer
obliged
##itan
prohibits
##mx
receipts
lucius
taluka
catholicism
##low
##uke
leiden
memorandum
##grounds
shadowy
##oted
lillian
guessing
spruce
あ
enemy
昭
establishment
undertaking
campaign
fx
##zzle
[unused823]
shattering
flexible
dungeon
fielder
[unused509]
plume
[unused306]
au
indicated
##₱
auditor
natalia
[unused661]
##ang
[unused255]
tasked
officer
##ni
fountains
##ث
##ो
[unused768]
hungary
lounge
refused
starring
survivors
photographed
mecca
effectiveness
fang
##straße
##ъ
智
waits
winnie
##む
accommodation
##lina
##vati
##德
forests
rear
moody
imitation
##zzling
piper
bolted
semitic
encircled
manila
molly
combines
dempsey
corbin
fragmentation
hook
mack
dashboard
##nell
one
##ingly
##saurus
petra
helena
puzzle
renewable
cannons
tractors
elections
candles
bermuda
precinct
nico
clinch
manifest
sank
muscled
exiting
connie
##dote
enough
descriptions
##kha
lodges
stove
##hope
##南
aurora
february
1820
brant
1956
plus
rip
adorable
pebbles
##tension
##bin
euclidean
भ
exclaimed
##sson
bernardino
doug
[unused741]
[unused891]
[unused936]
welsh
goldberg
hartley
##cer
frankly
##下
largely
stewart
##pan
blair
mentoring
accounting
[unused739]
seizing
##py
abandoning
##havan
minute
our
footage
confederation
proceeding
fatigue
[unused486]
philippe
atom
lazy
collaborator
usually
improvised
pistons
##ctor
reactions
derry
broken
subset
disasters
removed
specified
benign
thinking
##erus
ein
habits
flores
π
hailed
dummy
##ilation
developed
contra
cite
benton
fingers
nicolas
airplay
stalk
fourth
installation
prince
fantasy
imminent
gu
purposes
arriving
sorbonne
chilean
blocked
118
##ifies
##som
##rigues
shaman
those
unable
sun
##agne
crowley
hs
depends
fights
##oration
upset
[unused392]
##mussen
atm
[unused757]
braden
theoretical
cook
structurally
ability
preached
elevated
bully
##hing
pairing
devlin
##∇
xx
archbishop
detachment
##rio
##nsed
##mmer
##drick
maintained
databases
##リ
##dna
cabbage
battalions
adolf
labeled
##sea
ich
williams
ツ
persistence
25th
vivid
units
iii
habitats
repertoire
shuffled
fluent
dared
##ca
[unused50]
benji
白
vaccine
##tell
courts
earliest
ignited
##rde
##onus
bachelor
##ginal
excuse
carol
absorbed
recently
accusation
span
goddess
land
wrestler
##post
qualified
##icz
##mony
74
##gler
blind
lars
fluids
consoles
elise
##mith
gesture
out
##sso
6
poles
delegate
ile
goblin
rebelled
silly
pollard
adds
reproduction
simple
stack
[unused581]
1800s
obsidian
##gne
##ieu
unused
##☉
[unused446]
shrewsbury
siege
baskets
ontario
hoover
ւ
##ywood
##ss
##ural
bizarre
affects
[unused227]
assumed
historia
scholars
sands
##ago
superliga
##eering
##ᵥ
politicians
##見
betray
sector
contains
giuseppe
averaging
##alic
beings
unfair
youngest
invalid
ambassador
gall
द
warner
stanley
embraced
॥
park
encyclopedia
regency
collaborations
slovak
died
##yya
astronomical
semifinal
[unused296]
##oven
smelled
overseeing
referees
##inho
confused
transverse
m²
once
reynolds
hilt
##finger
rihanna
servants
lending
##武
subsidiary
luz
intra
bothering
slater
miguel
ratification
killer
137
vial
heartbeat
1702
corn
dino
##ma
##37
elaine
cfl
singleton
predominantly
paired
reuben
shepard
veil
1971
het
320
##nets
capital
herds
##down
fountain
sophia
##«
ho
[unused860]
ז
farms
##ridge
lincoln
holding
##ndon
captives
smoked
[unused593]
##belle
zhou
buffer
knight
570
##ep
##zone
exact
loose
slam
drank
dramatically
readiness
astonished
trips
vampire
##with
##ual
##lton
fontaine
terrorists
[unused723]
quantum
##eia
##wy
##iful
swarm
redeveloped
written
stephan
##ares
niall
banco
modernization
##八
##4
governing
handed
japanese
disappearing
##ise
newcastle
resultant
##rations
ச
##qvist
amplifiers
melting
lips
ᅳ
roc
##mori
silvery
speculation
rubble
##dice
##athan
##ر
##utnant
##oped
present
realizing
colonists
marin
illuminated
enzyme
[unused665]
cologne
125
pulsing
locomotives
##tion
仮
receptors
―
lives
sixth
releases
##ska
defected
olds
choosing
staggered
sanctuary
##vary
##cel
interview
strait
##iac
apprehension
succeeded
deported
disrupted
##ifer
frankie
huntsville
probe
##loading
titanic
##umb
busy
arrivals
itself
dozen
norse
forcibly
##ton
servant
marvel
strap
ardent
quarterfinal
perception
belgarath
admissions
viii
easton
groves
invasive
plush
##ifice
loch
intrigued
numbers
##ja
portraying
thematic
via
repairing
checks
blood
temple
mc
practice
agatha
cap
##old
transported
380
settled
every
ᵤ
evolve
156
atrocities
constitute
roe
zoe
sumatra
german
assigns
sphinx
##ל
kathryn
##մ
09
surveyed
wong
eclipse
decade
presbyterian
##hip
becoming
peacekeeping
squared
prop
##chia
##iter
members
##ལ
thriller
後
moshe
reeling
[unused225]
basil
rio
##kovic
recipes
##ken
arched
pastures
fujian
iran
suite
[unused767]
left
kerala
pointless
rec
documented
clint
139
#
buster
##erre
draped
integer
leans
##pie
stucco
rise
forgiven
single
exiled
parole
stimulating
really
neck
##inates
##ddling
##gano
rhys
afterlife
##ider
##ox
reza
1772
##terol
jung
confronts
amp
goddard
##hit
##por
conceptual
pmid
##oot
badges
magazine
destined
diagnosis
brien
stems
ʎ
continents
jerseys
1764
argument
peters
flexibility
objected
palette
enfield
##scent
pixels
wreck
books
bourne
##xie
physicians
very
##eria
constantly
mutations
風
##rce
acknowledging
won
mir
¾
retrospective
fries
##北
ang
boca
##olo
salamanca
##rka
carey
olsen
bites
ホ
wendy
sioux
1988
halls
mma
neither
marking
317
ς
appeared
[unused536]
cabins
[unused165]
scales
crank
arrows
basement
##™
##eros
##ways
subject
judaism
fraction
russo
jersey
sweetheart
baronet
extending
[unused407]
mist
metropolis
readers
spawning
claw
savanna
vortex
[unused636]
fifteen
rapidly
##sden
balancing
bellamy
contribute
urdu
[unused231]
mat
seaman
plays
chow
ribbons
tertiary
seamen
jc
prevented
tian
entirety
[unused920]
v
ი
##mute
[unused541]
##lls
apr
suspended
grady
pupils
didn
##dur
extended
[unused696]
national
flyer
briefing
##bing
shudder
curtain
1917
predatory
mechanical
unions
outgoing
trenches
##ellant
munchen
##culus
continuum
1651
investigator
decorate
stalked
francais
uc
##imeter
junctions
##ker
introduced
cavendish
plunge
##秀
magnesium
patriot
tugging
detail
nyc
##ね
french
destructive
who
amphibious
pill
corrosion
hyun
##མ
waited
pumps
chords
##tine
ᵢ
ecology
##crat
41st
athenian
passed
dmitri
stupid
preaching
##dict
1680
oclc
[unused803]
washing
freshly
##istle
railway
[unused247]
toss
deploy
peerage
domes
820
##ヒ
slick
vaguely
reds
endelle
boiled
evidently
1640
##usly
bosses
grandfather
##hee
hawkins
compiler
1794
clenched
##lbert
filippo
##گ
cain
##how
failing
##lston
expensive
[unused948]
precedent
ri
smaller
excavation
sent
bicycles
[unused975]
sensible
disorder
revolves
##gre
informing
secretive
somewhere
pontifical
##rky
dominican
entertainment
##utus
##rricular
resist
##cina
slit
##ction
##pura
winds
truman
##nte
did
materialized
##ailed
pathogen
[unused950]
whoever
lionel
##ー
poised
developer
kingdom
scrambled
[unused963]
dump
dune
facility
##acker
consecrated
surfer
##gling
yorker
##ج
##leen
wat
stereo
darting
kerr
encouraged
pills
##iger
ב
gently
computers
崎
interim
stuart
oppose
surfaced
historian
bryant
nikolai
##chment
##eger
demands
reproduced
##script
®
insurance
viruses
insane
4a
##pres
##uri
por
echoes
elevation
##wyl
tanker
handel
##ins
strands
##bad
alarms
faso
##gingly
banner
##meyer
inquiries
##ce
##wt
intact
lining
gilbert
sonic
dinner
##cin
alarmed
rug
wilkins
spd
requires
correctly
ʉ
signalling
185
##ipe
dwellings
somerville
sworn
representations
back
surgeon
rusty
drown
intake
⁶
enter
##ote
##pi
##、
[unused977]
honoured
now
wildly
surveys
comprehension
ᄊ
neighbourhoods
##icus
inauguration
six
berlin
sao
##44
upstate
compelled
argent
##fm
##ro
##ask
fossils
mongol
wicket
enhancing
souls
dioxide
bend
constituent
coated
ventral
nosed
ms
lengths
brothel
228
marino
##made
noel
[unused981]
り
honours
##arte
worthless
##gee
credits
greene
lighted
diablo
gdansk
sued
ken
caliber
##torm
##dler
gulf
##lda
pete
ns
steam
##rgo
demanding
geek
silhouette
yamaha
dentist
astor
climax
brian
saving
uploaded
sven
drains
sino
hazard
pastry
mallory
portal
easing
claudia
##ctive
##era
144
tully
lombard
224
arden
apostle
##ᄇ
ད
offences
adolescent
anchorage
oxford
[unused731]
##erly
##uising
conrad
い
explore
##ava
honeymoon
swapped
simultaneous
北
noir
fourteenth
scared
paterson
critic
sits
insurgents
chapels
##ament
nations
vista
##frey
finished
##itical
writhing
prem
drills
cottages
certificates
tells
dollar
andes
squirrels
1817
ᅢ
agra
lonely
roadway
caledonian
downfall
conception
accreditation
coats
heating
aegean
killers
tribes
[unused325]
severe
scholarship
nhl
ugly
trout
enzymes
yiddish
##rate
hardcover
industrialist
dmitry
ortega
##皇
liege
##耳
cock
pets
fragment
alternative
##gible
fireworks
[unused756]
##one
##culture
v8
boys
birds
ᄀ
##uer
investigative
rankin
goose
jeff
medal
hangs
##ean
consultative
ballistic
mantra
nocturnal
psychology
activist
##mu
congressman
terrific
tea
contributor
##tility
claudio
propeller
premiere
valle
sizable
laszlo
longest
maddox
##ih
burger
anguish
sargent
hills
hurricane
birth
mischief
##ban
persuade
##☆
[unused658]
therapist
socket
solomon
preparatory
dispatch
konstantin
cooperation
careers
##ned
soil
##ium
nomination
tempo
spit
##oka
rumble
assistant
regulated
watery
##coe
cowboys
jing
##uge
screened
[unused166]
discontent
peculiar
run
ت
strife
vanish
counted
##kit
novel
[unused485]
lester
unfortunate
##mara
ᆨ
xavier
intercontinental
sale
authorized
[unused61]
landon
britten
joe
sided
##istic
ministers
participating
difficulty
##pon
gaius
1735
##urne
უ
elimination
1859
inducing
goats
セ
rey
joseph
threatening
voter
##ivist
chopra
##marine
##nham
##ented
accommodations
turbulent
astonishment
talking
drain
##backs
scratched
##mei
powell
##hin
clients
translucent
[unused428]
ی
crazy
reporters
sleep
falkland
dismissal
pope
directed
bahn
##lifting
fatally
voyages
poses
federal
anthony
highlighted
eyes
finger
kinda
namely
laos
suarez
##olic
matthews
shorter
gross
ran
wiping
ray
cultural
[unused469]
##itzer
slovenia
lover
styled
theta
##ison
trials
##王
puddle
cushions
##nding
[unused32]
twelfth
wreckage
timber
privy
sofa
vivian
frigates
koreans
hesitation
plank
##ₒ
mathematicians
disrupt
##ே
marathon
grasslands
beautifully
tunis
##γ
##ware
##abia
malta
kin
richmond
smyth
[unused635]
##llah
shakespeare
threaded
iberian
great
interfere
category
illegitimate
dogg
##rain
colchester
province
verses
pokemon
pajamas
sniffing
drunk
caressed
kenton
##る
aggressively
venture
interpret
greta
##osomal
bends
pixel
ace
pilots
miller
landscapes
barnard
rob
junta
funds
pretending
johnston
implications
character
ণ
preacher
forrest
compounds
littered
[unused966]
followed
[unused650]
##ology
ida
tho
supports
october
##mise
repeats
##ка
tops
boiling
heron
sykes
creed
suitable
saunders
exceptionally
buren
##vio
filling
hides
jerome
genetic
disagreement
melody
telecommunications
##kson
##hearted
len
oro
flag
plato
##氏
heroism
mortals
lowlands
đ
boycott
pleasures
mara
karin
travellers
prompt
deacon
[unused221]
scaling
gambia
##than
##sco
peter
virtue
262
transmissions
regression
balance
##ɑ
berwick
shed
lamp
seek
35th
latino
boston
##oy
healing
thread
mali
##neck
suspected
ignatius
elisa
beak
replaced
genes
stricken
dark
##キ
tip
allison
dollars
##ulata
greaves
##御
resisting
taken
[unused86]
dialect
erwin
thinner
subsidiaries
enthusiasts
pious
impulse
pertaining
1785
hallways
brink
##cking
civil
lungs
##crats
##松
[unused535]
##su
##01
tornadoes
fjord
iihf
bulging
##rick
faulty
smashwords
##illon
lukas
prison
peer
ladies
##ej
popcorn
midsummer
eaton
gift
backpack
rue
lithuanian
##↑
pulsed
roadside
keynes
[unused463]
essex
gladly
53
jane
recordings
colors
totaled
##貴
lasts
[unused389]
##tism
##gle
ages
133
##nius
electrode
psychological
furnished
turing
musically
sweetie
真
housed
##“
hartford
wallis
[unused207]
gertrude
##nts
liturgical
awakened
##bbon
rana
##tized
virginia
approximate
lev
##手
thoughts
consider
judge
yd
atkinson
##umble
ড
descriptive
harmon
passage
##nery
mouth
presided
彳
discovering
mutually
##ctors
sexy
##shan
magnate
multiplied
digger
802
##gaard
uncle
jurisdiction
mortal
mankind
fay
##runa
wolf
tiffany
chandler
bremen
stephane
scholarly
spot
gloss
secretly
##dant
mirrors
mans
##ado
bergen
##sian
cornerback
297
protective
commercials
derive
visa
battered
leaping
##食
tuning
davy
##劉
ನ
refugee
my
[unused405]
marquette
dodgers
deciduous
##ructured
dietary
[unused829]
receives
€
initials
opening
refrain
croatia
成
女
##е
[unused17]
type
##ulously
catchment
sarah
designs
guidelines
liszt
aforementioned
[unused36]
dodged
##eer
kelly
genevieve
invariably
46th
greet
startup
titans
faber
flirting
reagan
[unused519]
scandals
placing
aba
discussion
acts
declining
##·
gemini
judged
readings
allen
[unused411]
bridget
incurred
ध
vineyard
maxwell
mobility
[unused654]
laurie
christensen
cries
##ographer
##º
classification
prompting
##enas
subway
rasped
usl
##ignment
revolving
analysts
[unused720]
kidney
##ctus
##dner
##odies
##人
##urbed
merely
royals
tier
stunt
horned
insight
pillow
mammalian
gilles
repetition
sai
伊
points
focus
lund
trough
lineage
vegetable
process
##itic
screamed
##han
municipality
kitty
maggie
##grove
friends
vertebrae
ep
skeletal
chorus
龍
##id
occupation
villain
encompassed
organizational
##ret
##wu
muscles
august
scissors
[unused909]
perez
backs
inflicted
##ost
presentation
[unused930]
deaf
execute
##type
##nd
##imated
」
cheese
seduce
heard
sweetness
closest
⅓
perfectly
1973
##cable
represent
##⁰
rainbow
##mg
obituary
eugene
politically
ipswich
quotes
[unused109]
##pants
sporting
##dak
##il
##rea
fused
dentistry
thru
belongings
gurney
silas
##erated
protest
contests
guadalupe
yawned
vent
broadcast
hesitant
operations
push
ι
voss
##urst
launcher
##linger
md
nora
kowalski
sculpture
incorrect
##tch
practitioner
auction
##ular
そ
[unused135]
pollock
raiders
980
cavalier
miss
maintenance
##mata
##eim
recruited
##amine
pius
reach
darkened
percentage
##uth
hayden
well
portions
aura
maria
shrub
huddled
expressive
shutter
shrugged
columbian
clicked
alleged
lu
exports
宇
libya
statewide
inevitable
apocalyptic
formed
cass
1858
auckland
##feng
##metric
deaths
##row
##ndi
lakeside
inherent
##lam
election
refer
intuition
149
buff
yue
minogue
lacy
traumatic
##uld
##ル
香
loren
ı
superior
ट
prefix
##rates
historic
manning
##wice
farmland
finishing
mr
done
postage
pornography
mixture
##ᅭ
421
exhausted
cross
kathy
barn
seed
##mon
brig
contrasted
superficial
persecuted
liquor
champion
prussian
##€
titles
prolific
##tus
determination
##polis
##rita
##ricted
navigable
jimi
##wled
justification
##心
athlete
ate
13th
access
canopy
crane
repertory
gentry
##grin
detonated
detroit
mirrored
fences
皇
##har
posse
sidekick
rivalry
pasadena
360
flare
slate
christchurch
munitions
qualify
barrage
frequently
nickname
##rta
accurately
induce
donegal
lighting
compositions
chi
interfaces
farewell
##ʀ
piston
##trum
tracks
immediately
mental
[unused25]
carlson
birthday
bio
racehorse
##pid
ammonia
##>
##rated
##zhi
##宗
translators
x
keith
##i
sage
investing
kaye
maha
stanisław
##sur
danielle
municipal
thirds
deprivation
fighter
albums
##mans
followers
##mora
originated
##tium
stalker
##ص
##hesis
ku
corrugated
medications
kawasaki
shrine
##ogy
sweep
joyah
lone
##nden
##para
welcome
##lence
exceeding
##rden
এ
conductors
nationale
grinning
cluster
motorsports
gardening
explode
segunda
monday
230
milne
hereditary
tensor
parliamentary
##chon
[unused789]
minimum
##vate
accusing
##heard
ozone
##itative
decatur
อ
martina
[unused870]
##word
[unused703]
jerusalem
coin
##ants
grass
guard
disappear
outer
100th
limits
hamburger
##cker
exercising
##zhou
##₹
protested
disadvantage
##rrier
な
create
opportunity
silky
neutron
1703
da
playoff
sonia
aberdeen
##qi
belgrade
license
[unused354]
ᵖ
horde
conner
1854
bunker
[unused524]
ے
heroin
roberts
bone
##し
counters
themed
##pire
##dia
neighbor
dangers
keenan
owner
longevity
##x
##øy
##iving
others
guantanamo
##wo
reputation
southend
expert
uhf
alexandra
##tia
ha
թ
angles
maddy
morris
##ndra
olson
again
sip
limited
pulmonary
teen
smug
##ven
##gman
clinical
volunteer
##ried
georgia
recycling
congress
corporate
##partisan
wonderful
##riated
airing
城
storage
remember
though
arranged
everything
punt
##farlane
[unused544]
##vitt
mortgage
fronts
##ury
##≥
##ho
succeed
snooker
##pes
q
leto
overboard
embroidery
##ices
religious
megan
confluence
javier
cartwright
strewn
jae
##ux
ᄇ
additional
mast
not
##forth
excellent
venice
##国
drafts
mixing
solution
navajo
pv
##mba
tanzania
##uman
facebook
waved
harden
centuries
wherever
##ju
allow
varieties
injustice
##ulator
than
chemotherapy
[unused477]
soon
##lled
dia
##elman
inaccurate
heavy
biblical
scraped
##fo
[unused745]
fines
here
intimately
hume
prisoner
accident
normal
lorraine
##plify
glass
##holders
prestige
39
outlines
1699
diabetes
rocker
adventurer
maru
##llation
amazing
yoon
jocelyn
stimulus
factory
preserve
constantinople
analytic
horsepower
transfer
シ
bing
patel
##aks
pensions
rover
##ema
responsive
anhalt
symbol
nest
止
sedan
delayed
##gree
[unused680]
##west
relating
perfect
##bang
##ail
##liffe
inspire
swung
keyboard
mathias
alice
postmaster
##esian
bauer
clapton
abdominal
##書
delicate
four
commissions
thrill
##lten
reviewing
wanda
fearing
inequality
##stand
##balls
edge
[unused796]
fen
##ovsky
learning
dancer
##ony
##ting
douglas
relativity
barley
rehabilitation
ict
י
headlined
##天
collaborators
mentally
triggered
harness
framed
##entes
mosques
derivatives
##under
##pile
swayed
closeness
demolished
##ista
inmates
##es
wikipedia
##var
ა
cabin
downhill
sal
1868
ག
bowled
##ix
##ah
mughal
giacomo
eater
undisclosed
mari
##anza
mounds
poking
##ivision
governance
drawer
edict
supervisors
millennium
nas
yahoo
heightened
frederic
occupational
hailey
analytics
darwin
##mins
1816
qatar
storms
satirical
helium
suicidal
ry
42nd
##ulus
poured
seldom
physics
portraits
entrusted
ɕ
liking
picket
hottest
naacp
##弘
irritating
gui
carlo
forestry
##phus
sticks
2003
executives
speedway
sum
damaged
decree
athletics
pick
mac
detection
joo
adjutant
»
condemnation
##rit
swansea
byron
tyrone
dynamics
lbs
##ɪ
18th
confined
dvd
wrong
##eh
dil
premier
sheets
pillar
civilization
compartment
primal
panties
prophet
##uil
##tta
##ception
returning
##cle
colon
##dh
kuala
diffuse
primetime
regulatory
mobile
cleansing
aka
baker
profits
sensual
代
das
sex
bc
maternal
serve
maurice
pillars
beast
engineered
uncanny
debated
medial
1951
194
ロ
chance
grateful
consumer
tripoli
clancy
confirmation
infection
jasper
bard
horsemen
philippines
wire
opponents
uprising
##ling
hedge
##ami
tr
[unused893]
combat
kimberley
james
leonardo
spirits
enamel
depleted
biochemistry
uk
laboratories
im
schoolhouse
hudson
moonlight
ranch
##"
translit
##las
##lt
ga
lulu
snow
##李
##♥
crashing
violins
doses
usher
flux
softer
escaped
lurched
ward
substrate
cabinets
ɲ
speaker
##oth
broadband
occurrences
valentin
cypriot
##re
crime
repulsed
weapon
overseen
##sari
variant
dementia
nuclear
alexei
bernie
barbie
euro
##hner
cheered
sentences
wandered
kendall
nes
ste
doc
bullock
##т
secure
francs
miracle
return
lansing
gable
##34
algebra
2001
[unused5]
novels
##od
spread
##roid
jimenez
buffy
saint
alligator
33rd
cursing
kilda
##ime
##nan
accountability
cardinal
##americana
southwest
[unused872]
##ং
##zie
gig
‘
stunned
##43
polo
sleeves
insufficient
##ungen
holidays
muller
users
promotions
[unused595]
heavens
alaska
[unused884]
overlap
##bial
after
beach
##night
##kker
•
fields
laps
bp
1752
suited
##gur
prowess
bugs
opera
saddle
stepping
##roud
kent
burke
sequential
£3
endured
adept
##vez
##sboro
buildings
retaliation
##kie
seeds
kanye
simon
##ue
restriction
otis
1540
answer
nj
eine
##ovo
diagram
roaring
##iner
requirement
##uet
furious
bells
rowan
##odon
butterflies
##社
[unused254]
dramatic
za
##fies
grapes
claus
thickness
[unused260]
parentheses
##onis
daniela
1659
catastrophe
banker
ata
quartet
##lic
cigarettes
packs
whore
cochran
turned
reminded
[unused639]
##ir
calder
##hausen
##llet
antibodies
##fia
exceed
ten
pounds
schemes
1644
##awan
##aga
##km
imam
developing
stryker
谷
indifferent
baroque
blog
retire
banquet
309
popular
greek
stereotypes
unnecessary
##間
##k
patio
[unused160]
spectral
til
selma
319
[unused548]
documentation
vibrations
ign
##izes
advertised
apocalypse
##ly
##town
##race
african
newcomers
predicting
[unused236]
7th
improved
pump
probably
fifteenth
agreeing
unison
juveniles
benedict
ranks
subjective
cleanup
somerset
aarhus
学
practically
packard
reintroduced
1625
katie
tripped
2000
severity
э
spared
bandwidth
##oint
##loid
[unused264]
曲
rivals
closely
ranges
bosch
passport
bodyguard
casualty
##ウ
[unused70]
deliberately
immensely
micro
locks
rus
satisfied
exchanging
##pate
shielding
inquired
##ge
##ensis
##yat
subdued
anatomical
manners
liberty
kam
ceramics
jacobs
[unused239]
gone
aground
[unused216]
sabre
##nov
toxic
##el
fundamental
[unused712]
socialists
gazes
cough
introduces
##ucher
catalytic
[unused496]
##vant
diameter
sampling
gentleman
##dek
ø
encourages
1778
rocked
comply
[unused740]
##tt
armando
thereafter
vaults
publicly
arises
segregated
shall
criminals
digging
##oft
[unused175]
reservation
305
subtropical
belize
[unused358]
funk
pity
pilot
sunken
reads
##ulio
cozy
bamboo
##14
profound
religion
[unused807]
worn
assured
francesca
straps
##ausen
kern
medium
##rrado
##tics
only
electrical
laws
productive
##khov
litres
pan
[unused882]
##inda
##lani
leung
і
data
bo
##đ
ends
bundles
salts
##hema
ineligible
equivalence
##士
era
##aka
##ott
abruptly
archery
##lley
reused
##verse
copyright
social
chain
[unused295]
bug
bruno
##cky
warfare
paz
totals
groningen
##fly
kick
142
##¨
evaluated
mantle
warm
internal
egypt
erected
spy
brahms
natural
bribes
森
ව
attempted
presenting
convoys
look
invasion
##ort
baptiste
musik
dungeons
hr
hayes
conserve
mig
bisexual
haynes
##ctable
phones
kinase
attend
ticked
##uis
travel
##uary
midday
auschwitz
null
fiery
description
settler
insect
responds
##ammed
pole
reforms
concerto
strained
jars
spawn
##ller
arctic
jacksonville
death
##は
philadelphia
kitchens
##xes
acidic
minority
biological
urge
ruben
tour
immediate
bromley
guangzhou
indies
months
thanks
cn
dizzy
[unused684]
opinions
converting
##suit
characters
ie
##hold
curb
##ez
pancakes
##lik
##nington
snyder
organisations
₅
resemble
τ
##lynn
conducted
holders
##ugh
resonance
##ettes
derivation
teaming
joker
separating
##bolt
excerpts
##taka
##otype
[unused897]
branded
##yler
talents
shi
hunting
freedom
louisville
treasures
confirms
porte
emigration
##চ
##lez
utopia
montpellier
uttered
lamps
26th
looting
devotees
fiscal
licenses
prentice
geoffrey
dictated
sides
manson
mcguire
nueva
##ked
gala
vogel
##lyn
gazing
luna
museum
subspecies
bubbling
88
lazarus
dail
##awa
rates
scanning
twentieth
favors
##a
光
requirements
##key
jurgen
woodrow
morality
rainer
subconscious
invention
assemblies
rescue
rpm
ra
reflections
lively
[unused42]
owing
francis
considering
epithet
1708
them
##ـ
grayson
livingstone
##uously
test
##isation
##tte
coding
empires
anita
flickering
waterfalls
convince
tone
may
employees
hire
downs
angeles
##ias
grouped
lesley
mayhem
remix
iris
##cb
[unused885]
ci
chill
salim
holden
joining
pottery
##encia
humans
##nie
jacqueline
torah
streaked
[unused308]
isla
##sling
offenders
testosterone
doorway
##bre
usc
ol
tower
viewing
##urity
touching
1972
generalized
##uze
depth
##founded
superb
##mo
alan
celia
[unused892]
inspections
dimly
[unused852]
titular
##scoe
grove
directive
hereford
deco
也
trunks
##bas
stayed
##eter
ו
cm
mussolini
##emi
duplicate
doubles
unarmed
core
inspection
imperial
##zed
interpreting
##ooping
##lby
make
affinity
adjective
辶
southwestern
rooftop
##chai
rafe
reward
##mbled
ส
rolf
counseling
##合
ɪ
sunderland
cartel
wcw
spectrum
##ishly
##ter
laughter
interactive
goofy
shapes
fundraiser
disc
sulfur
fernandez
card
organised
html
##icated
bats
fitzpatrick
middlesbrough
caspian
bu
seizure
successes
thief
auguste
70
qaeda
armor
mutual
psychiatrist
1655
verve
courtship
battalion
##gt
street
approve
temptation
opposes
hess
dynamo
overtime
domestic
filtered
247
##aid
chris
custer
##dran
##trust
##│
[unused223]
garden
enlarged
applying
##pel
##dy
spectator
sheppard
113
serena
piece
295
##vier
inca
simpson
louie
pluto
slower
[unused701]
roam
##mous
miscellaneous
israeli
##yx
performed
install
broker
horseshoe
##mering
trillion
##imi
##orra
lp
reinforcements
metis
provide
peers
libyan
skier
cancer
331
friendship
punk
buckley
sheikh
##stown
##ᄌ
strawberry
1925
excavations
า
[unused830]
soaking
warrant
ъ
streaming
comrades
##也
palatine
containers
rainforest
uci
ा
##ʷ
⁹
##olf
[unused338]
##ན
trafficking
insertion
globe
##rle
[unused336]
dental
kirk
##出
produced
susceptible
exceeds
handling
regretted
reproduce
advanced
##dm
pasha
joel
jules
##tonic
insulin
canadian
##off
additions
##•
incorrectly
directorate
[unused699]
犬
blown
talon
campus
financing
maritime
##ια
bohemian
ventura
ল
jagged
zealand
waitress
nevada
compartments
newt
##lett
##icio
[unused393]
campos
duffy
##प
uta
bradley
thanked
motown
issn
anytime
lords
mcbride
inc
age
sponsored
glad
##ell
postal
phillip
ambush
chips
##rmi
alfa
corps
laguna
laundry
##ง
satisfying
currie
##face
rouge
prism
1709
schubert
[unused832]
inner
##dion
1970
##°
savannah
benson
96
durga
indoor
pathways
1652
whispers
interests
nuevo
##icative
reactivated
thoughtfully
rate
reflection
talk
宣
##ganj
staff
something
archive
quantities
barrie
tolerated
upscale
##fed
carved
ethanol
caitlin
emphasizing
merit
sponsor
##hips
##uance
##ி
##rath
struggles
##rose
##ario
drivers
naples
originating
branching
silence
honesty
substitution
belinda
kyrgyzstan
##rrigan
コ
smoking
##ough
arm
milton
bertie
##m
accurate
liner
aus
##bara
miami
muttering
##fp
pins
greece
amalgamation
dazzling
escaping
夏
1000
mort
acquisitions
grinned
1768
bray
sulawesi
ncaa
slices
##tin
repetitive
passenger
preach
54
origins
prasad
terrain
controller
peas
philosophical
epa
[unused272]
[unused112]
##6
concern
isabelle
##nty
hazardous
resorts
inception
rancho
##illy
##gang
sylvester
congresses
233
##chu
[unused40]
arcs
abusive
##史
##cken
bind
audit
##sby
rudy
scowl
softly
##vana
juris
theodore
wildlife
infected
molina
android
303
1725
occupying
hole
同
##nin
skinny
##ь
curriculum
##eck
##zzo
##lco
reminds
concert
oxygen
wounded
[unused972]
intervals
trinidad
intellect
1809
##combe
migrants
##holding
plaid
##tly
scowled
abolitionist
##unt
putnam
tucking
nacional
##uded
[unused420]
claremont
turning
heterosexual
##am
foley
bartholomew
math
grumbled
liz
nord
omar
midst
condensed
##ahl
shafts
colleen
##pin
evacuated
smooth
镇
נ
mercenary
les
##onga
rotterdam
ら
smiley
cloudy
infinity
formal
pal
char
suffers
##yl
saetan
##ance
##(
technician
dated
exploring
hm
howled
unidentified
deceased
teens
commemorated
blazers
beers
dwarves
evade
castes
woodstock
windy
chose
premises
balcony
leland
template
coordinate
kernel
shipment
principals
kyle
host
surpassing
##th
1834
##week
##berger
##urer
rita
[unused23]
feathers
##ety
leaves
##ibe
sbs
smack
runway
slowly
##gai
2015
scream
yer
assassinated
foundry
1777
irwin
disabilities
equality
greenwich
exploited
trap
framing
decay
##base
angel
hara
ン
claimed
antenna
hazy
tents
##lese
##mble
⽥
xander
fatal
##ʸ
250
equipment
shin
raised
dripping
heroic
princely
prophets
undergone
##ija
scoop
shadow
bournemouth
kurdish
together
census
tilt
##nded
handler
##channel
suspend
assists
croix
ₘ
##nall
blocking
pri
shareholder
orioles
1926
havilland
wonders
cassandra
theirs
screwing
refuses
##ple
benevolent
glamorgan
1919
earthquakes
##nate
##bilities
##ually
independently
beating
[unused162]
1960s
##rae
parades
accelerate
cad
[unused430]
proliferation
result
cute
wyoming
memorial
schizophrenia
handing
entered
1942
alone
ko
change
1756
yunnan
constantin
interesting
[unused516]
throws
grossed
mumbled
##ක
handcuffs
thirty
ף
lydia
ames
press
cells
##tarian
rule
ร
dash
mina
scandal
cord
miocene
fairfield
lizzie
admired
##0s
##lins
elliott
lowering
warwickshire
##bert
fighters
monkeys
dixon
emphasizes
tv
simplest
funeral
marble
1661
helicopter
rollins
##atter
hodges
お
fin
fossil
database
cai
lift
storytelling
statue
recreational
##eers
##fat
daughter
destruction
filing
cargo
org
nightmare
##ha
adding
##zman
##world
observing
pristine
frontier
lid
##raph
竹
flavors
hearst
implant
widening
mountains
persuaded
cassie
barber
hydroelectric
paralympic
maine
kc
kato
1967
dinners
##ar
christy
notions
cougars
isle
##bri
vocalist
moon
chewing
##vable
monsieur
specific
cb
ashamed
leaders
yoko
marc
brightened
respecting
fell
siegel
発
sympathy
dave
by
problem
indo
assignment
logo
liverpool
sonar
ɫ
amendment
##aux
parting
censorship
##fire
laughed
219
dinosaur
rain
parchment
existing
myanmar
becomes
correlated
amount
projectile
set
148
1730
championed
automation
que
akron
pest
gaulle
##chison
[unused968]
reared
ʿ
linebacker
atheist
telugu
reassigned
##tzer
##ttering
patty
[unused99]
weir
117
authorship
stool
[unused133]
flip
underworld
diversity
tongues
photographic
patients
solemnly
##suke
bono
shivered
highlights
tray
گ
simulate
picks
##さ
imagine
##back
norwich
##ku
align
dorsey
guadalajara
worry
clasp
estuary
1810
cloud
wrestling
revolver
##ssen
##ala
lim
48
meyrick
bingham
argentine
effect
criticized
##jas
##idae
alla
hugo
1992
kidding
exhaust
hepburn
orson
class
[unused116]
waistband
quicker
surf
cheltenham
maltese
⁸
29
pretended
sega
spider
verdict
slovene
##uh
pursuit
pre
##stov
ᅭ
##mit
ratios
##pis
samba
header
intensity
dispersal
penalties
loan
[unused805]
07
curling
[unused847]
presence
reefs
extends
71
##tyn
hunter
flat
screenwriter
mba
year
##parts
sufi
140
arrests
enroll
police
coloration
comparison
marty
tips
flooded
scorpion
insignificant
##haw
influenced
estate
dudley
implies
realization
oddly
brit
1910
gather
##ა
##tail
distinguished
##ans
6000
harassed
voivodeship
fling
##お
[unused330]
puerto
induction
doping
1642
##less
ω
grows
meiji
##．
inaugural
##xx
##ichi
date
guilty
commits
tumor
pageant
[unused242]
hospitality
capture
##hering
immature
##cheon
julien
##⟩
##els
instituted
contradictory
##nikov
[unused746]
aquatic
tao
zane
blockbuster
adultery
##འ
fingered
scored
emerging
##美
colloquially
looked
sixties
[unused37]
：
##་
trieste
##⋅
gloom
士
adored
ag
anatomy
fills
sydney
flick
interactions
buds
##enham
##ffi
bradford
##avian
timed
##vinsky
contingent
chronicle
foremost
formula
hooker
[unused843]
##ⁱ
##ul
##sts
##月
⊂
mommy
国
seamus
nero
anybody
packets
geometridae
##boy
[unused167]
jamaican
managerial
outlying
tu
elsewhere
poznan
raked
locked
tuscany
##シ
embrace
spots
accumulation
elaborated
oz
schedules
doha
南
practicing
##standing
muddy
kings
division
nutrition
##media
##ე
407
##icide
galaxy
manufacturer
trophies
ts
student
rockies
##omorphic
conflicts
##gger
macleod
terra
cramer
##ino
hua
bred
sarawak
speech
glued
monde
##of
1801
gripped
mcgrath
penang
faction
choked
hideout
contenders
fission
decommissioned
bursting
omega
##ians
##aw
driven
romani
inscription
##leigh
ᅦ
wynn
[unused435]
##mler
performer
offers
follows
caste
mustard
brussels
##zin
guatemala
[unused545]
##ovich
streak
[unused97]
carp
ac
strict
plane
##ill
step
celebration
##dened
notch
utilizes
op
tube
1714
##mere
rooted
tie
groove
1665
norms
dumping
coincided
mahogany
[unused184]
vantage
ﬁ
goat
##bain
julian
fellows
##kle
humanist
worldwide
russians
##χ
medina
¿
hospitals
macau
news
pip
stuck
using
johannes
kappa
sociological
mixed
##ת
calculate
brandon
flute
stevie
gerais
##ₖ
##unda
emma
italia
##llis
cites
boarded
healthcare
merchandise
melee
breaking
unicef
½
authentic
rehearsal
denial
##ty
##lman
·
pak
[unused790]
locking
uss
heiress
bankers
小
kissed
wow
talmud
##master
gang
spun
intervention
##باد
##sburg
breaker
##ent
##oli
##ल
francois
nominations
##mann
ceremony
ada
shoved
##eries
##bala
##isman
xiii
1795
declare
krakow
wind
newspapers
##breakers
batch
chung
altar
exploration
trolls
backgrounds
50th
disturbance
nasal
baseline
stroll
[unused507]
¶
comeback
involving
strangers
[unused732]
章
filled
vow
ordnance
.
##gpur
objections
earrings
fearless
##mc
##up
ж
##llins
weather
breeze
gracie
##sz
holster
xml
office
restrictions
divided
waterfront
corinne
trends
damp
[unused212]
accidents
##ancy
transporting
chet
intent
column
impetus
privacy
recapture
established
document
##อ
##aking
waters
dubai
blinking
##iman
[unused385]
feet
marvelous
##grating
component
gt
discs
jockey
rudder
hooper
[unused1]
stabbing
##‑
suites
##gart
transferred
modes
faux
declared
examine
ح
arguably
clerks
virginity
godfrey
1818
dai
arrest
##√
##pipe
##ppel
ek
高
##jo
carpet
citrus
cotton
##oza
institute
derby
##lette
174
bump
[unused92]
asean
##ж
offender
loaf
deals
coincidentally
##愛
apologetic
hopes
attracting
proposing
assisting
prague
ticket
r
khmer
marching
owens
lied
permission
adviser
hubert
dialogues
manchester
ய
##quel
algorithm
locker
commemorate
[unused771]
booming
##lund
dylan
grief
ella
grunt
##え
salaries
duets
##gina
gun
luzon
pollen
animation
berger
schumacher
fridays
madeleine
##ot
protagonist
##ind
http
tingle
##op
fortification
volkswagen
hasty
##bay
##kovsky
trombone
vidhan
hiv
supplement
##die
##ods
barnsley
##₍
lopez
contractual
mood
agency
##dr
##ocytes
lit
、
##zz
cold
lineup
differed
packed
##代
added
cages
##vd
puzzled
refuse
[unused655]
faster
##ola
##jet
scenery
##ctric
harvesting
lyric
clair
##tyle
darkly
bliss
behavior
英
##བ
stagecoach
##logies
objection
specializing
arabic
sacramento
froze
activities
jump
reelected
clash
ᴮ
fra
lewis
blade
ᵉ
crouch
[unused718]
##chen
evan
treaty
waldo
carefully
unincorporated
reformed
##風
dyer
[unused902]
crown
parties
eisenhower
##kat
##vera
##missive
iranian
terraces
##shida
transitional
aligned
pepper
##jure
[unused802]
attacked
er
awarding
ks
[unused961]
ধ
nurse
##კ
##rily
warnings
286
incumbent
yoo
symphonic
canterbury
revelation
rama
africans
##²
##sse
quarterfinals
cosmopolitan
gradual
babylon
sinn
##les
south
##os
zimbabwe
gigs
casinos
formally
sting
##sque
cinematic
outsider
dirt
patented
451
programming
schools
##ties
example
donations
genuinely
negotiate
learnt
##ropriation
1981
fritz
ul
##bourne
exploit
164
cheng
1929
restaurants
bangkok
inuit
1987
punched
##ris
hobbs
launched
ignorant
notation
modifying
motioned
charles
760
wren
elbows
wellesley
[unused900]
ill
irregular
exceptions
aviation
aft
##zation
barren
林
193
draper
##hun
definitely
dubois
##／
investment
breakaway
rocco
##qua
##group
algeria
notoriety
centered
##eri
graduates
select
centimeters
suppliers
[unused633]
terror
ক
ranking
lima
##wg
##„
ernest
complexes
##ld
##hler
www
##rne
buckle
publicized
mom
latvian
nineteenth
pont
arrow
quezon
beta
itunes
carried
barons
actors
kid
mp
dorchester
lobby
teaches
thence
##西
federally
systems
friar
hernandez
##ture
##ings
ancestor
##oked
[unused834]
##in
stick
##heads
##iani
[unused726]
cookie
anthology
romanesque
##ency
income
monument
costume
taft
##ph
night
gary
northwards
nic
##nett
##amo
syria
1998
carmine
whom
mn
ᵈ
code
aired
outsiders
##rika
receivers
lena
1960
cpc
jurisprudence
programs
belarusian
sailed
wisconsin
recognizable
remy
surgical
feelings
1827
seeking
merging
##sit
[unused60]
##page
caucus
dunedin
mother
##nos
marko
rachel
dedicated
tex
##chua
dilapidated
painted
containing
condition
party
patrols
38th
##cius
##king
rushes
[unused886]
boxes
constrained
##ᵒ
terrace
benny
buckingham
##borg
alexa
thornton
37th
promoted
nagoya
that
grazing
hayward
scientific
paints
ejected
religions
tricky
corridor
horizons
unveiled
rei
domed
##⁸
romeo
termed
##定
printer
hussein
modelled
kia
examiner
messengers
214
circumstances
ib
spends
spokesman
##bies
こ
dull
italian
bayern
##hand
janice
ogden
postgraduate
lgbt
bismarck
72
jewel
pigeon
schooner
##krishna
norm
stem
statesman
creative
missionaries
erroneously
overcame
ィ
outskirts
intimidation
debating
の
valid
opinion
touch
singular
christie
1833
sofia
sound
tracked
##sho
102
fictitious
##ined
carts
discontinued
deutsche
fetal
##hid
consultancy
[unused929]
zimmerman
jody
ち
complaint
painful
1900
madeline
##ply
orlando
organist
drill
530
americana
tagged
supplemental
coastal
malaysian
subscribers
##tails
opined
##dance
sired
choose
kenny
hellenistic
cds
enslaved
##trip
leaking
tolerance
[unused80]
calvin
floppy
##)
measure
dipped
vp
propellers
homogeneous
##mpt
edmund
##umi
##nova
portsmouth
##tec
processes
owning
sacrifice
1808
turnbull
jerry
medicinal
applications
witness
oceania
modernized
playing
unbelievable
gold
wall
collects
botanic
motives
ᄐ
rest
copper
mandela
surface
certificate
lifts
erotic
##erved
chilled
##ccus
barbara
phantom
reclaim
barrel
screen
jose
pictured
peek
gravity
orphanage
damned
burrows
堂
lash
parapet
roderick
∧
##drome
antics
##յ
frederick
gym
screening
constituencies
avoid
starr
destination
surveillance
##ttes
1913
nm
wig
ortiz
oral
doors
⁵
blush
ballast
perrin
populations
560
presentations
##stic
amara
02
ripley
continent
subterranean
pumped
brotherhood
buenos
immigrants
##stone
stretch
##rsten
intentions
bonaparte
troops
318
##bo
nile
##inga
pretoria
essentially
beat
showcase
cory
henrietta
continuing
inspiration
lamb
che
joined
cavity
##po
file
abdullah
compilations
ashby
frantically
andy
albion
primaries
paid
summoned
badge
processed
bs
##hardt
scarlett
albanians
show
1697
(
catalogue
##rell
degradation
standards
[unused169]
provinces
clayton
##orn
nigel
##β
prof
vigorously
##⁺
repairs
##iness
##tically
addicted
bal
curiously
note
priest
stumble
confederates
trend
##ite
abrams
comical
##imate
appalachian
##nas
mane
biceps
##isto
lying
certainty
fargo
##bed
##onale
sanders
##lers
palatinate
dwellers
grenade
ben
newbury
mounted
turkmenistan
gunmen
350
strangely
ᄋ
exclusively
##kr
[unused628]
jay
garment
##umber
##空
jayne
hurrying
displacement
significantly
##woman
mel
##cate
serb
younger
aa
gr
##het
alexia
meeting
commanders
remembrance
portugal
migratory
##uder
nair
ser
paulo
af
[unused871]
寺
businesses
jeep
41
ec
[unused54]
1667
##iente
twelve
##fall
42
mojo
features
##£
choreographed
clapping
denounced
##31
false
1873
##imus
evolutionary
nerve
cholera
##ceptive
loops
##jun
carrie
constant
correct
propose
noted
cristina
disabled
appellate
internship
invested
jesuit
1797
gown
1645
treatment
##!
##れ
tres
##mm
cracked
viola
milford
##∧
scheme
jens
sped
biology
spec
conditioning
##centric
remembered
lau
##power
more
dynamite
tim
vomit
ignition
cavaliers
zambia
torpedoes
ambulance
focal
forbes
chiba
displeasure
bay
discoveries
lets
clemens
raises
squash
##izing
misunderstood
kilometres
grind
##powering
ᄂ
slalom
honey
royale
negotiating
switching
mammals
glowed
##walker
secular
simply
resurrection
##hana
overture
##rogen
comprises
##ᆼ
##cola
junk
##oslav
##eis
burroughs
##⇄
ʊ
functions
identified
yoga
neared
skip
recipe
shoving
vichy
lawrence
##32
regulation
##its
sikh
lynn
triumphant
og
mater
anger
noteworthy
capable
grill
##athing
maya
##lace
fenton
ensures
slope
neurons
yuki
diagnostic
atkins
bomber
pouch
continuation
charters
helens
1717
bedford
musicals
script
humour
du
bernhard
restricting
##building
##laze
1848
nailed
estrada
documents
bhutan
castle
frequencies
cooks
antennae
##wc
exile
##200
peppers
##nen
##art
so
ah
genuine
nightclub
concentrating
crowns
complete
pretty
counts
##tting
##と
theory
z
ritual
burton
##sg
tossing
ץ
kahn
##良
aviv
stores
amalgamated
handy
forearms
victorious
incorporates
supreme
disguised
jammed
murderous
apply
dortmund
##atics
##mos
midway
mcc
facades
employee
psychiatry
1710
touched
syracuse
bush
orange
domenico
testing
venetian
photo
promising
1100
revolution
willie
transferring
barked
brownish
scrap
nadia
moritz
海
quarterly
hardware
atoms
key
##yan
rugged
##ր
disturbing
saliva
##ece
cranes
plot
money
zhang
scratching
##扌
1893
preceded
carson
terrified
gong
男
newtown
tn
2011
outdoor
authorised
promotes
surely
875
incidents
tax
trumpeter
divisions
##bley
tucked
##ா
vascular
1086
68
bogota
imply
trophy
shortlisted
ᵃ
##پ
foreword
##oc
racing
slain
investor
65
force
portrays
inappropriate
ascot
unlikely
##ein
pray
mike
luck
diocese
devastated
scattering
donaldson
sg
##rd
minneapolis
##liner
pasture
troll
horne
narrows
##christ
ups
##ि
against
[unused153]
layla
monstrous
##gor
welded
attitudes
murder
##gf
tensed
tendency
month
##bound
apples
chilly
##otti
mcqueen
##ness
graduating
[unused379]
weak
unity
strictly
antrim
broadcaster
fence
persia
gottingen
☆
richest
malice
##|
momentum
charcoal
thirteen
sh
##±
issues
claudius
[unused856]
crosses
culture
##tner
linear
migrant
ordered
arturo
##น
fallout
gastropod
diet
enterprise
stormy
fished
«
linguist
luisa
frances
brigades
##谷
alfonso
fact
labelled
shutting
sunset
packages
[unused159]
sunlight
##hem
rosenberg
masonic
simpler
##ʾ
engraved
##etto
##ggles
##gating
wiener
matrix
koln
##ept
serpent
robert
fragile
sergei
seeded
##mt
戸
##breaker
chevrolet
assure
assassin
##ec
jays
forefront
finalized
##子
feeding
[unused256]
fishery
[unused96]
representing
##jan
boon
collegiate
rocks
valleys
[unused579]
esteem
welding
##shot
sms
205
seychelles
kiel
advantages
##sia
arrangement
virtues
collector
towards
##sb
##tung
dq
##aghan
clung
##cloth
金
popularized
##our
saints
calmed
[unused575]
confusion
1793
sakura
legion
whitish
spikes
alt
松
parcel
dry
##tter
45th
spirituality
knowing
tremendous
lure
median
ע
reaper
paradise
ferreira
bryson
け
geometry
headquarters
mandy
masovian
louvre
erosion
schumann
skiing
cambridge
abdomen
redesigned
hissing
humane
[unused305]
timothy
hardin
shots
nomenclature
[unused98]
anders
most
encoding
calais
shrieked
stripping
##strel
thoroughbred
##rard
reckless
##բ
coastline
gust
deliberate
franciscan
outlaws
##metry
unemployed
##worm
კ
##inium
##iography
barbados
pub
dominique
anzac
yokohama
rabbit
guilt
romans
collaborative
femme
peg
wheelchair
ymca
wharf
blamed
1923
[unused403]
europeans
##ghan
[unused608]
instant
om
##mics
##ford
weddings
shut
wu
undeveloped
inter
threatened
off
owen
em
courtyard
381
trafford
##yna
dressed
zagreb
rowland
blogger
annette
racks
stony
》
##hered
[unused533]
##ہ
##house
lanka
venus
[unused131]
alleviate
##per
##oko
##tour
##ز
ð
shadowed
boogie
pivotal
dart
##to
##lights
tablets
rectory
redesign
obe
strips
specimens
stockholm
##cor
debris
[UNK]
mingled
photon
870
[unused335]
##治
read
tomb
relative
harlem
atletico
biomedical
₁
september
##dorff
shaped
citizenship
##sum
peeked
goal
martha
##copic
##trix
clade
aaa
phased
perch
ɾ
josephine
upbringing
hypothetical
papua
irrigation
##eran
longer
brad
silently
##yama
compensated
visitation
limestone
##文
##ogist
distinctive
fright
##merie
maxim
##tness
laura
dimensions
cardiac
##ato
seem
##ড
[MASK]
##fide
##orough
ajax
ᴰ
त
total
jackets
##nat
moans
explodes
##止
##acio
##rson
doe
milano
##nburg
##bush
bath
##makers
mcgill
nikita
cannes
hk
consumption
usd
##olar
located
[unused408]
cobra
ম
##nged
duel
pulls
fame
knob
jax
##،
reinforce
##code
pass
scary
destroy
cubic
##cellular
pitches
##ege
青
##cene
results
173
odd
grasping
frogs
kincaid
lyon
##orted
rhyme
[unused539]
##宀
##oman
figures
solely
##firmed
try
治
capabilities
kuwait
expansive
brood
firms
hertfordshire
newman
agustin
pizza
reversed
gesturing
##ل
message
denver
sexually
##poo
civilizations
326
survived
##gist
female
designation
deeper
several
300
guangdong
transformations
1940
hamlet
delgado
memoirs
bergman
myself
tulsa
umar
element
[unused868]
earn
eager
vertex
##adi
economy
sharp
medalist
wrestled
cannot
##rys
afar
##mology
protruding
crisp
leipzig
auspices
optimism
unpleasant
##grave
##ล
conglomerate
##layer
##♯
196
equilibrium
crab
fireplace
skins
contributions
hollis
johnny
kara
yemen
know
christianity
separate
affecting
##lberg
jews
stability
prohibiting
authored
nobility
wound
semantics
pinnacle
ferrari
cheshire
shouting
##anum
##dini
##2
indirectly
[unused454]
##year
falsely
legislature
complimented
primary
##gate
associated
collar
dl
playwright
coronation
313
299
extravagant
taxon
crescent
clarence
casa
baccalaureate
microscopy
advent
karlsruhe
m1
[unused66]
leaks
harvest
##rini
angrily
occupants
1776
layton
aspirations
##stream
##top
charge
fortunate
##egan
bazaar
requests
safari
bolsheviks
з
##宿
##du
mb
##omp
intersects
sufficiently
ninety
madden
veracruz
organize
calf
[unused83]
##hers
loss
pension
assassins
##von
gonna
##ographic
##words
inlet
boy
slavery
780
##lars
seine
tentacles
wastewater
sadness
detachments
demanded
connects
photos
thou
##cology
spoke
spices
##usions
sandwich
kurdistan
ernesto
peterson
with
infant
sneak
mechanic
tablet
1754
grade
lists
obstacles
rehearsals
anthropologist
shrugs
jonathan
feud
expressed
uae
initiatives
##grants
lacking
p
golf
##rail
##hide
##bahn
peaks
therese
##zziness
eduard
hoffman
151
blazing
##sitor
[unused199]
fueled
[unused762]
##vances
##cation
1739
tiger
splitting
法
fellow
carolina
##mark
##ア
##gues
prosecuted
savoy
membership
ך
filmmakers
##sat
starved
agreements
tackles
odessa
##23
ᵐ
bwv
##olate
scar
beans
continental
townland
sister
johansson
aiming
a
thousands
corpse
eliza
##son
fire
##guchi
conducts
hermann
1705
sanity
philosopher
##val
success
works
wearing
conference
sweets
brewer
ultraviolet
##zzy
rb
古
nationalist
favour
funded
unrest
##cie
ふ
peninsular
dwight
##ბ
thatcher
intelligence
celtic
##stle
bis
##chenko
provisional
conor
pattern
viceroy
dwell
wholesale
##rable
perpendicular
negotiated
##onia
longitude
illustrious
書
##hor
##nx
##ters
17
##used
₹
engages
min
##urance
[unused401]
chimed
beheaded
hampstead
soul
evidenced
elementary
[unused433]
humor
##orf
distributions
加
##tet
frequented
clube
or
frames
properly
##bered
completes
supplies
nodding
screaming
shifts
diagonal
canning
karel
##logie
##ksha
see
##rac
宗
countered
##load
##58
wetlands
##cic
publications
##oor
世
consent
guillaume
##hli
##lind
recycled
rowing
kruger
zen
##』
picturesque
faltered
lana
prairie
leaps
##tie
##ʋ
hmm
debut
lung
##ո
##崎
apologies
freely
caucasian
area
mohan
moreover
##core
##rier
proton
doorstep
campaigns
pioneered
stillness
orders
fivb
festivals
capcom
independent
vacated
fairies
##opa
ramps
##lev
songs
athena
cruises
is
[unused348]
shetland
##tsu
jett
sacrament
m2
##de
stages
camp
##thesis
admiralty
[unused971]
[unused694]
identifies
stammered
practitioners
³
[unused346]
neighbours
[unused367]
seoul
##rons
seizures
##veda
allergic
luc
[unused819]
illustrator
hawthorne
avoidance
fbi
finest
size
muffled
antioch
hairs
tenants
girl
370
losing
warped
reaction
hawke
cu
limiting
eun
council
conferences
dumb
##sa
do
alcohol
antarctica
##link
visually
aux
stiff
topography
urban
europa
glide
dutch
philipp
##將
electrons
1830s
reliefs
outlets
destroyed
354
≥
##quitable
missionary
##sch
strategy
attach
5th
cheung
recent
langley
##shed
##bie
synth
ashley
justine
buses
jet
superhero
mckenzie
arresting
##海
wa
##rmed
sutra
##ently
##lan
retention
priorities
##ouk
lust
heaven
tattooed
##վ
##的
ם
shan
sunday
abolished
sisters
panama
##del
##anial
damn
diplomacy
##dicate
⟨
bandit
caring
eleanor
triangles
##7
computational
gloucester
decreased
banning
republished
redesignated
##ef
exhibiting
plaintiff
resort
oblivious
gould
rotate
[unused514]
sec
honorable
[unused685]
bassett
##urg
##¬
stake
routes
neighborhoods
naomi
enforcement
multicultural
logs
concourse
##き
equestrian
##cade
purity
##islav
refit
u
favorites
nebula
royalty
wash
salvation
##س
##si
##erine
celebrate
forge
shifters
中
captured
pea
painting
##lating
411
hussain
lucie
tapping
勝
##des
thump
elle
##ball
tailor
##ว
lea
##bol
pinch
guided
wheeling
°c
##un
swinging
richards
decline
1653
article
sciences
initiation
85
##onda
small
anya
marlins
authority
mm
darcy
kellogg
##ག
folder
freyja
##ong
grandmother
measured
sums
haryana
diocesan
##ʰ
ip
##chang
mas
##moor
virgil
giggles
beaten
occurred
drake
106
anomaly
treacherous
cuffs
[unused697]
guitars
dammit
##œ
gesellschaft
restraining
traits
sherlock
choking
critical
1769
represents
verification
##太
computing
bottled
discover
##dal
extent
czechoslovak
convention
resident
johnnie
timeless
zeus
brute
young
adorned
instrumental
switches
box
stab
argyll
[unused973]
boer
devin
snuggled
literary
##att
291
menon
think
correction
##ali
remained
kolkata
pei
¢
acting
##peration
archduke
side
[unused653]
clicks
neville
objects
retreating
important
fanny
lent
221
outs
float
predict
##ssler
certification
competitor
airfield
winding
quincy
[unused554]
myriad
nutritional
definitive
barrington
bihar
legacy
woodward
mastery
[unused191]
shrug
imports
textile
circuits
abundant
ぬ
##dot
nonprofit
pounding
argues
cbe
##ologies
quran
##ulum
clustered
matches
philosophy
tile
milan
##犬
edition
defeating
breeding
woman
salad
[unused105]
stint
vedic
columnist
blessed
##ђ
##hon
pere
dating
mirza
tags
lynne
[unused795]
resumed
##fighting
inviting
habitat
transformers
isaiah
preferred
##zes
quarries
n
real
sugarcane
rhino
unusually
##gong
antarctic
answered
singers
husky
1994
shields
weathered
porn
admits
guam
astronomer
##ior
carrier
responsible
jumped
nur
##ls
urgently
ro
##boards
polgara
1751
formulated
bender
prominent
publishers
beetles
unconstitutional
sk
[unused210]
steelers
dive
sport
cautious
friday
rating
##rich
travelling
eagerly
eccentric
##ggio
zeppelin
nfc
preoccupied
##tracted
##hri
sudbury
leone
334
jen
darby
closed
∨
stopped
fauna
judith
huge
##ea
applause
negotiation
speedy
nothing
##worth
##uddin
hardwood
adler
##街
clouded
students
木
outlaw
770
##chus
[unused489]
departed
lingering
linger
profoundly
sodium
##arat
regan
##大
batting
ships
##aine
##graphy
independence
barracks
tyne
nervously
[unused945]
amounts
identities
##真
creation
hatch
dreadful
pirate
humphrey
universally
maternity
slump
##水
tha
bowl
[unused283]
magazines
1646
##30
implements
wendell
assessing
woods
ব
ridley
colonies
sports
[unused209]
terrifying
intimacy
##avs
experiments
##bi
investigation
680
ethan
twitched
faculty
isis
manitoba
aesthetic
nationalism
restored
ok
lullaby
pierced
munro
sultan
##≡
environmental
##ள
biscuits
jolted
typhoon
dramas
##cd
historically
##糹
aidan
gestapo
tonga
retreat
व
infamous
witchcraft
##boro
bulgarian
quakers
##ⱼ
##venor
新
velvet
demonstrated
italians
johan
345
##yo
gateway
evangelist
##ᅪ
badminton
sorts
mats
ivy
memoir
commanded
valued
monograph
##hedral
damage
##nda
chassis
##mi
„
##nese
tended
neat
##jar
620
mccoy
##med
ვ
crawling
jogged
baja
advisory
ferrer
dominant
##40
brisbane
##lta
##ulla
282
eu
jennifer
loyalty
almost
mikhail
photography
##cote
##þ
##graphs
1947
reissued
listen
##max
olympic
photographer
##elo
gottfried
##郎
shoulders
1896
vocational
ass
##eca
coloured
##rone
folding
ի
ք
saharan
##hue
nostrils
##hampton
ο
providing
[unused693]
genre
fantasia
exhaustion
##ens
military
##ose
alike
##ischen
antennas
000
jewelry
gia
logic
rhone
##mpton
doubted
hotel
ironic
customary
facto
babu
minnie
powers
referendum
espionage
genus
checked
dresses
2019
##う
dunlop
pacing
ostensibly
evenly
prisons
higgins
vie
freezing
temperature
hours
##ania
purchased
gandhi
hampshire
illustrates
დ
memorable
##keepers
w
##জ
deer
reykjavik
rayon
##cu
engineers
stormed
oliveira
wear
##ok
flinders
waiting
ucla
premise
planck
##iere
enjoyable
guiana
##lon
infancy
，
turkey
marlon
mourning
##tify
terrorism
institut
contamination
me
burnett
##ol
##oids
帝
rap
heresy
∗
1630
tel
lai
oils
tessa
setup
adjunct
tyre
customized
missed
cuba
courthouse
sane
traditions
enhance
1974
##ous
##v
surfing
emperor
austro
##oides
##fect
##¤
ethics
knock
audi
toxin
##oran
sergeant
psycho
attic
iraqi
shaft
projective
ari
legitimate
turret
##ata
floor
[unused304]
hormone
mistakes
crazed
##iza
casper
##stead
chronological
drink
gunslinger
breached
individual
amendments
tariffs
[unused277]
1965
##ely
rail
119
survey
snarl
billy
forgetting
##odle
guess
andrei
substrates
shitty
midnight
distress
marathi
erik
situ
##氵
owls
##nous
disneyland
barclay
##bio
upton
scoffed
ो
expression
lengthy
playfully
##§
gustave
stolen
##ally
review
brand
ignore
volunteers
dip
recognized
ava
[unused493]
klein
perished
##ports
locals
##rative
surged
screw
representation
exhibition
##jos
governors
##ished
ljubljana
ashore
##erate
hacked
witnesses
ignacio
adverse
island
largest
arrangements
vibrated
adaptive
##kian
undead
##´
magnetic
alain
elf
[unused714]
innovative
ideological
##ayton
yuri
thought
mixer
diaz
blanco
newly
##icles
darts
1851
costing
polynomials
[unused748]
heather
њ
whistled
spins
chiefs
finances
[unused357]
##text
hermit
peacock
##vert
settings
[unused619]
positive
breakup
insulation
privilege
##riam
##ched
automatic
monasteries
muzzle
bragg
debra
##ors
marilyn
flock
##beau
##felt
starboard
stinging
1682
##uez
fixing
doubled
##etched
[unused7]
collect
##ode
encouraging
lie
190
sahib
literally
versus
harris
hornets
colbert
recital
arbitration
agrarian
##kong
##till
sporadic
anthropology
zombie
[unused804]
##tip
[unused317]
minorities
254
grounds
tufts
##о
kettle
presumably
[unused78]
nad
1716
כ
subsequent
stuffing
clerical
munoz
archway
bars
enrico
binds
##usia
պ
wiped
##q
annoyance
loyal
subtly
[unused827]
therapy
##gg
##aina
[unused864]
crambidae
tracking
troop
fashionable
serbia
##उ
##jer
probability
shifter
otto
participate
audible
tibetan
snatch
longitudinal
mapping
swim
##sl
locke
[unused355]
depression
cerebral
undergoes
focusing
г
southward
pauline
dusk
galileo
[unused222]
##lga
450
motorcycle
kapoor
initiate
lifespan
syndicated
fiancee
liquid
collecting
sl
##nae
cope
corpses
grew
resistance
##kara
frenzy
unacceptable
##wee
lose
irs
##ifier
##ounded
redding
stand
passing
vanuatu
infections
wit
perpetual
expired
commuter
santana
##itated
contributes
[unused127]
jesus
bargain
shropshire
remarked
breeders
##kra
hampton
clue
incredibly
##cating
crowd
[unused987]
##₁
[unused294]
highlanders
cedar
##13
spraying
peninsula
##ment
sail
enforced
chargers
capability
eki
uppsala
catches
nods
##rating
caps
##gau
##ib
associates
custom
tq
iv
eleven
marriage
##tz
##ras
honestly
stalin
cale
##gation
イ
15th
discusses
biodiversity
persians
reliable
cumulative
ira
##udes
bat
precious
functionality
livery
##hei
meade
maintaining
camel
finding
prospects
unlocked
fixed
kidd
wnba
eaten
vinegar
blackout
radio
[unused614]
dome
lotus
inhibitor
uncover
plaques
seniors
threshold
sampled
bestseller
vendor
mainline
beginnings
##urian
mated
winston
documenting
vc
magician
##say
alternating
495
finely
blacksmith
hand
transports
nicholas
##izan
resin
why
woodland
##⁷
congregation
caesar
##lash
grandma
entropy
london
##ogenic
##kind
citations
wolverhampton
battleship
maneuver
implication
##inated
anarchist
liter
hbo
fund
##bbing
##ta
eastenders
##sto
##roller
sobbed
communication
##mer
complexion
indicate
norway
ensemble
doubt
##kiewicz
##gement
mined
##kari
lucrative
plurality
pseudo
spat
ₒ
elijah
upheld
judiciary
morale
romanian
campeonato
ve
conjunction
lyrical
##yen
sam
##ulin
dig
##oic
racial
395
musica
trimmed
haifa
37
pages
dawn
jamaica
muster
foundation
##riz
stipulated
guy
wolff
nestor
##le
nazis
##ﬂ
##elial
pianos
controls
camps
lantern
rosie
ito
grip
finishes
reggie
ⁿ
curving
calvert
##slin
massage
violet
##eville
granting
stitches
##balance
reconciliation
bobo
alf
genealogical
[unused396]
macedonian
dimensional
enrolled
belief
##hard
##ticus
fun
##nis
se
sung
##⁹
flinch
mysore
tis
compression
aquino
nights
provoke
amc
##hism
actress
##nar
attract
tbilisi
cups
##oa
economic
fleming
##堂
1784
sullivan
retains
presenter
##anto
garrison
taking
vicious
##thi
divinity
dangling
parlor
reeve
appeals
sacks
ケ
##ures
##ivate
₊
architectural
edges
tentative
##ℓ
sick
idol
replace
weakening
[unused755]
glare
##ieri
tajikistan
1707
insights
##rut
clarkson
finally
invisible
carpenter
jared
[unused27]
possessed
[unused108]
violated
seahawks
applies
cecilia
##cape
through
##行
feasible
##cion
##eki
desert
observed
mysteries
activists
procession
lo
monte
apt
constituency
tools
copa
noises
immigrated
cosmos
1757
[unused721]
ur
[unused263]
planting
down
charity
xi
yong
##pone
what
zurich
utc
##華
1700
ter
1866
bangladesh
1638
flooding
[unused359]
whichever
correspondence
ন
bony
architecture
strings
none
siena
bowen
sensitive
1749
volcanic
half
##41
reserved
par
himself
[unused129]
##რ
dracula
##ran
unsuccessfully
margot
translate
calculated
harrisburg
performances
[unused195]
intersection
jo
metabolic
vote
hooks
topping
faa
predicted
defence
tug
gram
accounts
fought
##xton
jumps
reminiscent
stain
[unused914]
budge
##iciencies
##wich
pressures
reciprocal
##ᄀ
mars
ɣ
##dora
narrow
artefacts
crotch
[unused754]
[unused566]
##aca
scrolls
pratt
native
importance
withdrawn
announces
gates
##main
gymnast
validation
₉
granite
ricky
westwood
appears
conclude
##vill
sutherland
symphony
expertise
workout
tc
slashed
ist
dining
cadets
teeth
circled
##lone
marlene
ming
admire
refueling
uniting
impairment
president
distinguish
##dim
triumph
hearth
immense
went
whiskey
booked
hound
collisions
fins
##ously
cylindrical
##dee
proteins
seemed
##urized
juicy
escorting
##while
practiced
[unused366]
palestine
estimate
polymers
mastered
bombs
snout
hangar
neatly
[unused875]
banged
aragon
malley
bacterium
rape
pavement
dug
deeds
attire
nesting
##aur
sucking
[unused491]
##al
toys
yankees
bowler
greed
ulrich
coping
ventilation
##aa
##tura
egg
##つ
permanently
##min
planted
empowered
←
ᅪ
supported
##oux
squeezing
agony
fortifications
##gonal
hartman
warlock
viral
moors
gifford
##.
##schen
equation
swings
mummy
##っ
legally
1912
##vah
striker
remarks
thayer
encompass
ecstasy
##ros
implying
##rk
yeast
##都
diamond
##ق
branding
grabbed
named
rfc
pricing
##yas
##birds
congo
flutes
##藤
hahn
extinct
294
had
act
rich
clothes
pew
tool
botswana
298
liturgy
##ex
eternal
##bit
crisis
onion
ruse
marginal
greedy
marrow
##同
bent
kansas
hammered
whilst
center
lahore
semester
genius
grains
79
##ial
issuing
seasoned
##zak
reilly
belonged
winners
clements
##ati
tombs
##therapy
rammed
galicia
gmbh
yelled
ե
favourable
nu
chapel
401
sincerely
cha
disciplines
##zan
karma
##onzo
##）
##im
winnipeg
##sack
##gum
##thor
kay
sumner
strong
pledge
potter
##ads
[unused273]
[unused474]
boutique
##け
texted
nt
forgive
pads
nestled
technological
royal
cortes
supplemented
[unused645]
##body
pieces
part
estimation
pow
simplified
niger
lyons
borrowing
happier
##hale
event
barns
resurgence
太
emergency
##ך
relax
academie
kelsey
yerevan
campuses
##⁄
##nsis
kirby
232
8th
hilltop
##sma
earthly
##creen
mtv
tsar
thorpe
##nob
guides
間
celestial
remains
ethical
sprawling
[unused442]
blended
feasibility
brno
inferior
##ice
[unused275]
##edd
valuation
peterborough
spontaneously
##uration
favor
legendary
biologist
stall
1935
transmitted
slaves
hopeful
steering
##nder
receipt
cables
praying
chin
hogan
##laya
##64
mob
truly
[unused919]
##tance
##inations
fluffy
remnant
1890s
chew
ing
indicates
tabloid
[unused931]
##utz
robbery
stefano
terminal
mozambique
vowel
pawn
cloak
[unused698]
colleague
gradually
siding
notification
gorgeous
oriented
nursery
mod
##ی
betty
1692
brigadier
innovations
smacked
graham
guerrilla
dream
parked
vietnamese
vessel
proves
##ה
cas
florida
##sko
stilled
behalf
techno
transmission
forearm
clutch
1902
##fers
roger
1863
capitals
unfortunately
elastic
attaining
##issa
##rov
##jian
shack
policeman
advances
waving
##bled
cancelled
wasting
carrying
##dock
tulane
plaza
configurations
temps
enhanced
knowledge
samuel
##itung
mississippi
tested
reveals
neural
poisoning
violation
cure
treatise
##rith
pedestal
306
phrase
[unused700]
rebels
##test
##rney
nonstop
technology
asbestos
instances
demonstrations
sinks
[unused912]
gain
陽
patricia
henrik
630
[unused350]
di
rick
##rek
tyler
existent
forget
##w
##ng
concentrations
transparency
celeste
exodus
elm
5
ecological
##ᴺ
lame
daly
exasperated
resembles
##thing
bloomington
pepsi
francoise
leopard
transvaal
mean
hurley
chat
trustee
22
##itaire
defense
bundle
everton
parks
point
inspirational
nudged
bash
upland
magdalena
##公
##marks
whoa
genres
upcoming
investigators
le
crew
keeping
explain
sideways
800
##ₑ
korea
tehsil
liu
[unused226]
wealth
analogy
##heim
##iu
##ky
annapolis
##log
curvature
chen
deputy
##ssion
fuel
foul
##minate
willing
##hly
zinc
[unused228]
276
epic
archer
interviewing
borders
[unused423]
connector
82
moisture
7
κ
[unused375]
analyze
worth
bottles
##ɣ
##ards
talent
ominous
dodge
roof
winter
ও
power
alexandria
estonia
gritted
consciously
tb
marries
##з
hugs
ほ
album
1658
rhythms
ত
promoter
showcasing
##irs
unreasonable
gills
differences
bleeding
webb
computation
##u
kayla
idf
kidnap
##rao
[unused747]
serialized
[unused722]
##tron
commemorates
kilometer
send
complained
mormon
wallet
bjorn
##ll
gb
##dick
motorway
pursue
hour
##air
##sure
bowling
accompanying
##sław
##nik
fed
react
drawn
brook
speeds
startling
ecumenical
glided
denying
danny
ᅧ
predecessor
paradox
gunnar
[unused220]
minded
##mic
unlock
charted
##sis
raceway
experimented
vittorio
[unused343]
typically
##nia
fa
jennie
humble
mandates
burns
raaf
regina
sabotage
##ʐ
copeland
shipments
borrow
chromosome
zoology
##cts
ob
wand
spade
reflects
##weed
##meter
deposits
membranes
unreliable
futile
unbroken
utilities
hang
windshield
the
razor
川
larkin
bother
pamphlet
mayo
##ust
buchanan
##pose
##vir
##พ
homework
trance
supposed
corrupt
##−
live
answers
##ood
murderer
operational
polytechnic
curl
sidney
modeling
antagonist
elgin
attracted
##js
stage
influenza
##cam
pike
##chemist
plain
honorary
[unused31]
forth
restless
whatsoever
##uing
unmarked
##ო
balls
##like
rice
fast
facilitating
1711
couples
airspace
##σ
950
means
membrane
seymour
leaving
canoe
baritone
##urt
topology
humming
ordinance
toilets
յ
misses
304
romantic
cent
versions
##rity
chancellor
int
357
ii
ctv
savage
royce
restrict
tentatively
futures
##59
##hang
outdated
democracy
perceived
jaguar
58
family
plotted
lap
vamps
interception
admitting
##ru
perth
##uce
cupboard
##aster
messiah
goth
##cence
cornelius
lineman
ducked
festivities
##jured
bulge
honneur
##graph
partial
##kka
##brand
fades
##dit
ki
titus
ʀ
daisy
[unused218]
##port
barack
covenant
tavern
[unused443]
reformer
ladder
obtain
##tions
portico
ش
manifested
ramsay
dunne
##gua
aesthetics
padres
theorist
appealed
gag
booklet
aromatic
michelangelo
gathers
##or
##lage
roller
##מ
##encies
和
村
explanations
enriched
entry
prisoners
pedro
dashed
blasted
mori
codes
importantly
firing
consecutive
##patient
##lly
##bham
keating
poke
worries
axel
warmth
fated
freaked
uptown
translation
studying
ezekiel
helped
rated
spoil
##ump
vii
underway
♭
aye
wainwright
##oi
filed
ds
##cens
descended
founding
thieves
peng
##sic
##ishing
christophe
observes
mae
shotgun
teatro
butter
validity
furrowed
lauderdale
##46
lenny
invincible
cerro
tilted
bounded
##ii
bei
flown
sails
scandinavian
snail
colliery
##清
discipline
oxfordshire
amour
pas
benjamin
notion
iron
ʐ
里
starving
challenge
variety
fellowship
##play
##⅓
based
ァ
え
##rug
delivering
realise
anglican
nobel
spurred
curses
hale
##rting
completing
recruit
kai
cassidy
##croft
united
200
unconventional
verify
protector
halves
overnight
comparing
lori
ammunition
1930
##ko
##<
hu
calmly
amazed
slippery
shia
attraction
seas
##ulia
##nostic
slapped
capacity
odor
companions
##fera
[unused156]
ballard
##fying
##uls
welcoming
rhodesia
confuse
narayan
cruz
frs
lobbied
fm
evenings
marlborough
##nse
counting
outpost
regiments
purge
incorporation
tactical
picasso
##gizing
adventures
shoes
##rling
telecommunication
stampede
##roids
›
cayman
coasts
squat
km²
crossing
sentence
yearbook
良
pit
baxter
occurring
institutional
##urn
returned
№
quay
melted
pau
situation
##lr
zhao
strongly
wraps
groups
freighter
chooses
voodoo
subdistrict
##lusion
waller
nobody
dover
4th
momentarily
larson
disciples
sara
runner
##ided
geology
dangerously
sud
links
plaintiffs
空
##ers
marijuana
rosemary
mvp
[...]
